0000012E
00000802
00001C63
FFFFDFFF
00002457
00001777
FFFFE530
0000248F
FFFFFE0F
FFFFF32D
000006F2
0000100B
00002D25
FFFFF928
00002667
000003C8
FFFFF60B
00001D0E
000015D9
0000031A
00001312
00001CC7
0000421A
FFFFD152
00001AC5
00001966
FFFFE8D2
00002B52
0000091F
FFFFFECF
00000D05
FFFFFF51
000029F4
FFFFEF86
00001B71
000015E8
00000536
00002457
00001019
FFFFF2AA
00000B7E
00000CE4
000027D3
FFFFF9A3
00000EE5
0000189D
00000037
000022F2
00002385
FFFFF788
000016B1
00001B7C
00000208
FFFFFF57
00000A1F
0000174A
00000E36
0000288A
00001A24
FFFFFB90
000008BB
000014DE
0000160E
FFFFEC62
000000E1
00000A45
0000119B
00000BA0
000017FD
FFFFFC35
00001716
00000AE0
00000462
FFFFD408
00001694
00000A9B
00002229
00003684
0000291F
000009AD
FFFFF7EA
FFFFFB39
FFFFED99
FFFFCC05
FFFFFE52
FFFFF675
00002F19
00001482
0000163B
00000847
000015BE
FFFFF90A
FFFFF562
FFFFE76E
00000CD5
00001471
00002D9D
0000165D
00000519
FFFFF24C
FFFFEACE
FFFFE9A2
FFFFD816
FFFFF311
0000115C
00000DC2
00001C9E
0000199C
000024D1
0000194E
FFFFFA1B
FFFFCF09
FFFFFCF3
FFFFF69F
00000E74
FFFFF2CB
00000CD2
00001934
00000121
FFFFFB86
FFFFFC61
FFFFCDB3
FFFFEF58
00000FD4
FFFFF628
000003A9
00000B97
00001B3F
0000087D
0000293A
FFFFDA24
FFFFDCB5
00000A33
00000263
0000198F
FFFFF484
FFFFFBB2
FFFFE4BA
00000F49
00000C3D
FFFFDC62
FFFFE4B5
FFFFE341
00000306
FFFFFAC0
0000017C
00000428
FFFFD7BA
FFFFF457
00000F78
00001523
00000BEF
FFFFF8EC
FFFFF375
FFFFF829
FFFFF74A
FFFFF672
000018C9
00000211
0000022F
FFFFF580
FFFFF870
00000BE3
00001184
000014EF
000007D1
00000DE0
FFFFFD10
FFFFEBC7
FFFFF5C1
FFFFECC4
00001204
0000045E
FFFFF439
00000BEB
000011F1
FFFFF09A
FFFFED23
00001493
FFFFF0C9
00000CBD
FFFFF042
FFFFEE0A
00000167
FFFFEEEC
FFFFF3A5
FFFFFBF4
00000B9A
00001E61
FFFFE175
FFFFFD36
00001BA2
000010BA
FFFFF545
0000060E
FFFFD460
0000266E
FFFFE07C
00003E20
FFFFC6D7
00000AB8
000007F2
00000F22
FFFFE591
00000E30
FFFFDC7C
00001785
FFFFE53D
00001D9C
FFFFEF83
0000314E
0000188D
FFFFEE3F
FFFFDBF8
00000DFA
FFFFEC72
000029C9
FFFFD732
FFFFFDEC
FFFFF70D
00002713
000009D5
FFFFDEAA
FFFFFA29
FFFFE3C7
FFFFDB66
000020AC
FFFFD379
00000654
FFFFE6D3
00002490
000002F1
FFFFF5E6
00000A21
0000075A
FFFFD47B
FFFFFC72
FFFFF53B
0000033A
FFFFF81D
00003A19
FFFFF130
000009F7
FFFFEA90
0000127F
FFFFE804
FFFFEB36
FFFFEE85
00001722
000006B6
00001ECD
FFFFF27A
00000C48
00000810
FFFFFD4D
000004F5
FFFFEAF9
FFFFF32D
FFFFEE32
00000E8E
00001576
FFFFEE06
00002248
FFFFFAF5
00000870
00000A50
FFFFFCE8
0000017E
000001D0
00000771
00001738
FFFFF55E
000036DC
FFFFF2B8
00000EB7
00001489
000013A3
00001FB6
FFFFFD55
FFFFF526
00002889
FFFFF969
00003AB6
FFFFE941
000006C1
00000738
00000331
000028B1
00000E00
00000B0F
0000216D
000004B1
00003A94
FFFFC466
00001512
00000883
FFFFE64C
00001A46
000001F7
00001DCE
00002420
00000AB3
00004146
FFFFD018
000003DF
00001507
FFFFF107
0000263E
00000208
00000C5E
00002238
0000216E
00003ED5
FFFFBBD7
000013A1
00000DA1
FFFFFCC7
00002600
00000C6B
00002260
0000221E
000022F3
000018DF
FFFFE46D
FFFFFC29
000028AD
FFFFFD4A
00001E55
000003EA
00001889
000021E5
000007E1
000008DB
FFFFDC79
FFFFEA5F
00000F2C
00000B70
00002898
FFFFF19C
00002501
00000A3F
00002C1A
FFFFFB82
FFFFDE30
FFFFF1DB
00000981
0000149A
00003266
000020C5
000024C5
00001A23
00000FD1
FFFFEA7D
FFFFDD60
FFFFEA0F
00000503
000021DD
0000185F
FFFFF9AD
00001088
FFFFF1C2
00001BAA
FFFFF1AB
FFFFFAE4
FFFFF136
00000AE3
00001B54
0000251F
00001CFA
00001B4B
FFFFFCA3
FFFFF8BE
FFFFFD2E
FFFFE9A1
FFFFEDE1
00002207
00002A48
00001DF3
00001D15
00000DF5
FFFFD3EA
FFFFDBC2
00000490
00000966
FFFFDDE7
00000497
000015D0
00001207
00001B4B
0000126D
FFFFDA7A
FFFFE408
00001698
00002675
FFFFFB2C
FFFFF546
00002042
00001023
00000511
0000052F
FFFFF52B
FFFFECAF
00000DC5
0000030D
FFFFECE1
FFFFF7A5
000015CF
FFFFE586
00001C1E
00000248
000012C4
FFFFCF51
FFFFFB4E
FFFFFDD0
FFFFEAA4
FFFFF6EE
0000069E
FFFFF040
000012DD
00001492
FFFFEC76
FFFFFA1E
00000E12
FFFFED1A
FFFFF2B6
00000115
00000A1B
FFFFF12F
FFFFDCC0
00001EF0
FFFFFC7A
00002798
FFFFFF54
FFFFFE95
FFFFE5B2
00000359
000002E9
00000782
000000BD
FFFFFC9E
FFFFFA55
00000791
FFFFED26
FFFFED60
0000157B
FFFFF74D
000006AE
FFFFF249
FFFFF765
FFFFFC47
FFFFF0FB
00000E85
FFFFEFB0
FFFFF144
FFFFF1C2
000001B1
0000014B
FFFFFDBF
0000088C
FFFFFDFA
000013CB
00000309
00000C71
FFFFFD29
FFFFF329
00000588
00001375
0000008B
FFFFFB54
0000068A
FFFFF499
000021CE
00000939
FFFFED40
00000600
FFFFF1A2
0000179F
FFFFF192
00000399
FFFFEF98
00002ECD
00002893
00002879
FFFFDA18
FFFFF01D
FFFFEAE7
000015EB
FFFFE470
0000151C
FFFFE340
00004092
000019D4
000007D0
FFFFF1B3
00001C10
FFFFD213
00002647
FFFFB231
00000344
FFFFE1EF
0000351F
00000971
00000D4F
FFFFFBEF
00000B5B
FFFFF560
00002EB9
FFFFBFDB
FFFFFC78
FFFFE2A3
000020E5
00000507
000017C4
00000BBD
000002F9
FFFFDB20
000018C2
FFFFB752
FFFFF84E
00000052
00001A4F
00001519
000007F4
00000AD2
00001306
FFFFDC8F
00001179
FFFFD1C9
00000683
000008EE
00002D41
00001B48
00002478
000012F0
FFFFF363
FFFFEB05
00001CFD
FFFFD7D8
000009C9
00000037
00001B4B
00002BFF
000029CA
FFFFFBD4
00000B07
0000087E
00000F77
FFFFD192
FFFFE790
FFFFE881
00002C2C
00002A8F
00002BAB
FFFFF6F8
00000098
00000AAC
00001D90
FFFFEAF6
FFFFFF7E
00000942
0000187F
00000263
000020C9
FFFFFB3B
000001FE
FFFFFA6F
0000016A
FFFFFA30
00000F38
FFFFE6E7
00002055
000018CF
00003171
FFFFE310
00001958
00001DDE
00000E92
00000E95
FFFFFC04
00000E57
000023C4
00000459
00004398
FFFFDF9E
00000B11
0000141C
00001960
FFFFF7D8
FFFFFABF
00000390
00001F32
00000858
0000203D
FFFFD229
0000170A
000024D8
0000040B
0000108F
00001991
00000CC0
00003258
0000150D
00001FC9
FFFFE0EC
000013A4
00001643
0000087C
00000115
FFFFFB8D
00000579
00000998
00001AD6
000032D0
FFFFEFB0
FFFFDEF6
00000901
000002EC
0000099F
000007B9
000008EF
0000097A
FFFFF327
00001CFC
FFFFF96C
FFFFD40C
0000102C
FFFFFD59
0000024C
0000087B
000000AC
00000357
FFFFFA05
00000CBA
0000153A
FFFFD54A
00001302
00000792
000005BA
000001F8
00001B13
000013F8
00000DD0
00000168
000010CE
FFFFAECF
FFFFF6A9
00002243
000015DD
0000209B
00002057
FFFFF8A0
000000BA
000021D6
00002854
FFFFBF84
FFFFF036
000025AF
00000786
0000179B
00000600
FFFFDC6E
FFFFE64B
00002911
00000C00
FFFFDD64
FFFFF857
000014DE
FFFFFBA8
0000203F
00001164
FFFFE94F
FFFFE2CD
00001F0C
00001D82
FFFFDF89
FFFFFACD
000026E4
FFFFF8C6
000020C6
FFFFFAE3
FFFFE00F
FFFFFA87
0000098C
0000250C
FFFFC7EC
FFFFE17F
0000254D
0000005D
00000E97
00001294
FFFFF181
FFFFED6B
00000C69
00001522
00000703
FFFFED7C
FFFFEAEC
FFFFF4B9
0000063F
00001E75
000004A3
FFFFE326
FFFFE477
000002F7
00000320
000011F2
FFFFF8CC
0000205D
FFFFFBBF
FFFFFF7C
FFFFF230
FFFFF514
FFFFF82C
FFFFF57D
FFFFFAA9
000011F0
FFFFE7A1
00000E28
FFFFFAE7
FFFFEF20
FFFFF9B1
00000E67
00000F0D
FFFFEBEB
FFFFFCD3
000006FE
FFFFF4CD
FFFFED3A
FFFFEE43
000008F9
00001640
FFFFEEA0
FFFFFA06
FFFFEBDC
FFFFF340
FFFFEC3B
FFFFEB6E
FFFFFF4F
FFFFFAC2
FFFFF441
FFFFEE09
000003A0
FFFFED1A
0000097B
FFFFF3EA
00000E25
000002BE
FFFFF9DB
0000106D
FFFFFEEF
FFFFFEEB
FFFFF662
FFFFF691
00001666
FFFFE1CB
FFFFE5E0
00001C5C
FFFFF1A4
FFFFEB6A
FFFFDC60
00000DDC
00002B24
FFFFF3A3
FFFFF0CA
000009AF
00001450
FFFFF5DE
00000ACB
0000071A
FFFFF967
000023D2
FFFFE4F5
00001E93
00000CAB
00000611
000011A6
00002D60
FFFFE2D3
FFFFF295
FFFFE505
0000114A
FFFFF939
00002F51
00002689
