000005AA
FFFFF4F8
00000300
00000252
FFFFF1BE
00000087
00000B57
0000026D
000013AD
FFFFF991
00000122
FFFFF2CA
00000D3F
0000040E
00000822
00000219
00000DA3
FFFFFF0F
FFFFF2B8
00000025
FFFFD6AB
00002406
000009B0
FFFFFEB5
FFFFEF14
000002F4
00000DAA
0000046E
FFFFE5F2
FFFFDD76
FFFFDC8F
000010FC
00001B98
FFFFE1BE
FFFFEEEE
FFFFF2F3
0000137A
FFFFF2DC
00000682
FFFFE5E8
FFFFEA5B
00001CA0
FFFFF9DC
FFFFF564
000025C1
00003445
FFFFE8F4
FFFFF487
00002DD8
FFFFD8A4
FFFFC7B5
FFFFF4E7
FFFFF97D
FFFFDE79
00003B57
00001907
FFFFFBC6
000012B6
00003762
FFFFEC64
FFFFED5F
FFFFEBB0
FFFFE025
FFFFDEBB
00004867
00001BD7
000008D5
00002D34
0000224D
FFFFFE6A
FFFFF3F4
FFFFEF8A
FFFFCF92
FFFFE44D
00002F66
000038F2
00000B3E
00002304
00002FBC
00002AE8
FFFFF0D3
FFFFF44A
FFFFD445
FFFFE60D
0000165F
00002611
0000196A
00000CAF
00003338
00002129
FFFFF3C1
FFFFEA51
FFFFC47A
FFFFE9D0
0000216A
000025A1
00002D23
00000F99
0000311D
000010F6
000008E7
FFFFCE28
FFFFC82C
000005A8
000027EA
00000F2E
0000380E
00002112
000017AF
00002F76
000034E8
FFFFD956
FFFFBCC3
FFFFFE4A
00002117
FFFFF505
00001A2C
000028BC
0000358B
00004E70
000048D1
FFFFF9D4
FFFFD1F3
00002C46
FFFFFCAB
FFFFFA72
000007F8
FFFFFFDA
000035E6
00003CBE
00003BEB
0000308B
00001E4A
00003897
0000009F
000002C1
FFFFD41C
FFFFFF23
00000F10
00003D5C
000040A7
00002D20
00001660
000030F5
FFFFF11D
0000065A
FFFFC893
00000114
0000019C
00003AF6
000020CD
00003170
000004E0
000049DC
FFFFE61E
00002826
FFFFDF14
FFFFF8E4
0000044B
00001AF4
00001E10
00002BA9
FFFFFA92
000018ED
000011F0
00002136
00000B0F
00000111
00001D12
FFFFF490
00000DB5
0000329D
FFFFEFA3
00001574
0000271D
000031E4
00002031
FFFFFB2D
00003C53
FFFFFF4D
00000F52
0000126E
00000BA6
0000057F
00002323
00001E3C
000009DB
FFFFF547
00002AA0
FFFFE26D
0000036D
00000B92
00000421
FFFFFE63
00000FB5
00003122
00001804
00001E5E
00000EA8
FFFFE232
FFFFDA91
0000136F
0000070C
FFFFF02A
000019D1
0000118A
00002406
00000C4A
00001F42
FFFFE568
000002C5
000001EA
FFFFEB64
FFFFFFC4
00002E21
00002D0A
00002576
00001B97
FFFFFD99
FFFFFAAF
FFFFD70F
FFFFE576
FFFFD7CA
FFFFEB99
0000262D
0000076F
000030F2
00004100
FFFFF960
FFFFFDC7
FFFFDE7F
FFFFEDB1
FFFFE65B
FFFFFAC4
00000EEE
FFFFEEE1
00003ECC
000032A4
FFFFE776
00002A9A
0000091E
FFFFD389
FFFFF97E
FFFFEEC7
00000F5E
FFFFC810
00003ED3
0000245E
FFFFEBD6
0000322D
000019D1
0000246B
FFFFF2CA
FFFFC9E4
FFFFDA3D
FFFFDD76
0000353C
FFFFF95B
FFFFF973
FFFFD6FA
00002F2C
00001C2C
000012D9
FFFFE6CF
FFFFCC00
FFFFDB82
0000226E
FFFFD335
FFFFFF5B
FFFFD099
FFFFF7E5
000022EA
FFFFE8A3
000006A2
FFFFFDEA
FFFFE726
00000A85
00000B4B
FFFFFC4F
FFFFFC65
FFFFEA90
FFFFE88B
00000827
FFFFF803
00000736
FFFFF859
FFFFF4C2
FFFFFF53
FFFFF1B9
000014A4
FFFFF294
FFFFEC4A
FFFFFCE7
0000091E
000019E4
FFFFECF4
FFFFEE6B
0000006F
FFFFF866
FFFFF8E5
0000011D
00000D5F
00001FB4
000015AE
FFFFE96A
FFFFDF0E
FFFFFF52
00000915
FFFFF0F9
FFFFF8DE
FFFFF28A
0000171F
FFFFFD62
FFFFFC95
FFFFE1E8
FFFFF127
FFFFFCF8
FFFFF9C7
00002CBF
FFFFF326
000005A7
00000A02
FFFFFBE3
FFFFFC38
00002556
FFFFFC9A
0000011A
FFFFF232
000023F2
FFFFD43E
FFFFE817
FFFFF51B
FFFFD5E6
FFFFCD78
0000375B
00000B02
000035F7
00000BCC
00001602
FFFFE893
00000328
000002AA
FFFFBE48
FFFFEA25
00001A08
00000D6C
00003203
0000202B
000020FB
FFFFF6FF
FFFFF40A
FFFFFC5A
FFFFC1D8
FFFFC159
00001A89
00000CA5
00003DB3
00000AD8
00000AB8
00002198
FFFFDEE1
FFFFFDCC
FFFFCF15
FFFFD4BA
00001A28
0000257A
000020BA
00001589
00000DEF
000011D3
00000DAC
FFFFD43A
FFFFDB1A
FFFFEB29
00001F5E
00001207
00002D8B
FFFFFF4C
000022B9
000029D3
000022B7
FFFFD69C
FFFFE10A
FFFFF396
00002230
00001054
000023A8
00001AE5
00001E82
00002EE4
000026E2
FFFFF457
FFFFCB87
000002A4
FFFFFF02
FFFFFBED
00000856
000018E1
000022F3
00003B28
000054B3
00001A6D
FFFFF7D2
000037FA
00000250
FFFFFAC3
FFFFE728
00000FB6
0000293D
00003CAD
0000336C
0000396C
00000FB5
0000276E
FFFFE5F5
FFFFDC2F
FFFFE2E1
FFFFE4FE
00000D24
000029F2
00001335
00005E45
00001060
00002F0C
FFFFCDE6
00001286
FFFFE81E
00000917
000000D9
00003677
00000C51
0000503D
00000325
00003C3E
FFFFE583
00002F87
FFFFE0E1
FFFFFDA8
00003466
000008F3
000015A1
00004E32
FFFFE82A
0000259B
000016D0
000032F6
00000E86
000010A5
0000285B
FFFFEDD8
FFFFF4AE
00002F1C
FFFFEC0F
00001240
00003072
00002FC8
00003333
FFFFF7D9
000024B0
FFFFE95A
FFFFEC4B
0000151D
00000D42
FFFFFCF7
000012B4
00001080
00002CBC
00001AA3
000035F9
FFFFF140
FFFFFD15
FFFFFD86
FFFFF5E3
00001080
00000031
00001DB2
00003FE0
00000144
00000C1C
FFFFD5BC
FFFFFF08
FFFFE466
0000109D
FFFFF556
00001FAB
00002D6D
000023DA
00001F76
00001400
FFFFCFFD
FFFFDC36
FFFFE6F9
00000B42
00000FDD
000000EF
0000051E
00002EBA
00001B2C
FFFFE73E
FFFFF0D9
FFFFE753
FFFFC47B
0000041B
0000196E
000019E6
00000A81
00002CF5
00002BA9
000007F7
000010F0
FFFFE948
FFFFBFD3
FFFFE18D
FFFFEB03
0000040A
FFFFFA93
0000351D
00002B40
FFFFFDA9
000025D3
00000BE7
FFFFDCA1
FFFFF7EF
FFFFE4B3
00000123
FFFFBFC0
00003A1F
00002564
FFFFEC36
00001934
00002548
000011EB
0000028A
FFFFD06D
FFFFE1FB
FFFFBE24
000035A4
FFFFF686
FFFFEA15
FFFFFAD1
00001B44
0000383B
FFFFF7E4
FFFFE597
FFFFBA46
FFFFD8D8
00002166
FFFFD646
FFFFFD09
FFFFE3D4
00000C2E
00002569
FFFFF4D9
FFFFE0DC
FFFFE941
FFFFEAE0
000016C9
FFFFE3D5
FFFFFEA1
FFFFE5A4
FFFFFF96
00000BAD
00000552
FFFFFC5C
FFFFE300
00000FE3
00001AD1
FFFFF3BF
FFFFEF93
FFFFFCF5
000008BB
FFFFF6D4
00001938
0000030F
00000590
FFFFF4BE
FFFFEAFC
FFFFF7C5
00000EC6
000010AF
FFFFF9B8
FFFFF4F1
0000259A
00000803
FFFFFAD7
FFFFFB35
000007E7
FFFFE4EB
00001336
FFFFF7F8
000022E5
00001105
00000451
00000647
FFFFE645
FFFFD2BA
000006A6
FFFFFFDE
00001B8D
FFFFF588
FFFFF36E
000010DC
FFFFF726
00000406
0000019D
FFFFF826
0000146A
FFFFD6E1
00001989
FFFFE5CB
00001151
00000BC3
FFFFCCC4
FFFFF233
00001D32
00000C9C
0000342C
FFFFE4EB
00001548
FFFFF242
FFFFF63D
FFFFF486
FFFFD34A
FFFFE8EA
000015F9
FFFFFB69
000038A9
FFFFF3DF
00001BB5
000006D8
FFFFF1DF
000013FD
FFFFBABE
FFFFD7E2
000034AA
00002597
0000419D
00001228
FFFFFA75
0000079C
00000303
000017D7
FFFFBAA4
FFFFEA33
00002562
0000290D
000039CA
000008EE
000015CA
00001448
00001473
000019FE
FFFFCE15
FFFFE872
0000157E
00000B53
0000100D
00001A00
FFFFEFF8
00001550
00002069
00000F0A
FFFFF0FA
FFFFD55D
00001C4C
000022E6
00002712
00001EF9
FFFFF1F9
00002C2B
000037D0
0000250D
FFFFCCBF
FFFFF48C
FFFFE120
000007DB
00000019
000017E1
FFFFF202
00003B11
00003563
00003039
FFFFF8FD
00001304
FFFFFC29
FFFFE55B
FFFFF42C
FFFFF366
00001D40
00002662
0000332D
000047F5
00001E86
00003997
FFFFC847
FFFFECB6
FFFFE509
FFFFFDF7
00000E0F
00002F0E
00001659
00004865
000009CA
00003626
FFFFC2D3
00001299
000007D3
00000D20
0000307E
0000291A
FFFFF031
00004828
FFFFF6F5
00001CDF
FFFFFA0D
00000FE7
000014F3
FFFFFAB2
000031CF
00000B7F
000006B1
00002D9B
FFFFF37D
0000162C
00001A5D
00001347
000027BD
00000563
00002AE4
FFFFEB46
00000D84
00000ED4
00000424
000002E3
000016C8
00002BEF
00003D01
00001720
0000284C
FFFFDE63
000012C3
FFFFEEEA
000011CF
FFFFF180
000015A2
00002212
00004808
00000A55
00003107
FFFFDBA4
FFFFFE09
FFFFFD88
00000ACA
00000314
00001494
000000FC
00003D6C
00001430
000018A9
FFFFD928
000001F8
FFFFDB34
FFFFF519
FFFFF11F
00000D00
00000FA4
0000345E
00000AC4
FFFFFBE3
FFFFF6F4
FFFFF3E5
FFFFDAC5
0000025F
00000FFB
0000068C
0000177E
00003A17
FFFFF93D
FFFFFB4A
FFFFFB3F
00000BD9
FFFFD37F
FFFFF4A7
000011A8
