FFFFFA6C
00002F93
000007E4
00002714
FFFFF728
000019EF
00002ABA
FFFFE7CE
FFFFF5FC
FFFFDA27
FFFFE3CB
00002910
000022B9
0000211B
FFFFF2EA
FFFFFD2D
000009A8
FFFFEC75
00000E98
FFFFF615
FFFFED1F
00002658
FFFFFE9E
000008AE
FFFFF398
FFFFF2B3
0000031B
00000705
FFFFFE8F
FFFFEA96
FFFFE788
00001479
FFFFF93B
FFFFF516
00000BF9
FFFFF72B
00000AA9
000012B8
00000B52
000004B2
000014FA
FFFFF53E
000005CF
FFFFECEF
00000321
00001048
00000CBA
FFFFFEC7
FFFFFC13
FFFFED66
00000023
00001562
FFFFFC6F
FFFFFFC5
000005B8
000006BD
FFFFFF1B
FFFFFBC4
00000097
00000702
0000096A
FFFFF902
00000D3B
00001090
000001CA
FFFFEFCB
FFFFF591
00000888
FFFFEAA1
FFFFF85B
0000036C
0000034E
FFFFF78A
00000A31
0000005F
00000DED
FFFFFF85
FFFFF0E0
00000370
00001345
FFFFEF89
00000B7C
FFFFFAD2
000007F9
00000456
00000F2A
0000103B
000007FB
000012BE
FFFFEE53
FFFFF67B
00001850
FFFFEFA2
0000050A
FFFFE3FE
00000523
FFFFF70D
FFFFF989
000009C8
00001CD0
FFFFE1CB
00000928
000007DB
00002168
FFFFF410
FFFFFEE5
0000168A
FFFFE45A
FFFFFA76
FFFFF17B
FFFFF784
00000118
FFFFFD1A
00000407
FFFFEC05
FFFFF595
00001DA1
FFFFE7B8
00000BBD
FFFFFD0C
FFFFD648
00001599
FFFFE615
00001214
FFFFE338
00000FDD
000024EB
FFFFE234
FFFFFC7D
FFFFF30C
FFFFD6CF
00000D6A
00000D0E
00000F90
FFFFE0A2
00001833
00002345
FFFFE5DD
FFFFF8B5
FFFFDEC4
FFFFD48E
00000956
00000241
00001F43
FFFFBEEB
000009F8
00002470
FFFFEF66
000008F5
FFFFDE73
FFFFC1A5
000024AE
00000064
00002AE5
FFFFB258
00000C3A
00002DE8
FFFFD6A3
00000BF0
FFFFF5D5
FFFFCF6E
00000E82
00000616
000010B8
FFFFBCA7
00000BD6
000052D9
FFFFD4A2
000016AF
00000BED
FFFFE0AC
00001E0A
0000123B
0000167D
FFFFB3E5
FFFFF89C
00004A58
FFFFE62E
000010A3
FFFFF321
FFFFE1B3
FFFFFC53
00001668
FFFFFF16
FFFFB3B5
FFFFF79A
000040AB
FFFFD4D1
000018A5
FFFFF1AE
FFFFEB89
00001014
00002083
FFFFF98F
FFFFA20E
00000E96
000041F0
FFFFDEFB
00000C4D
000011DC
FFFFD7BA
000015F7
00000808
00000BAE
FFFFB3FC
FFFFEAE9
000026E3
FFFFE653
0000255E
FFFFFE4B
FFFFF200
00001C19
00002207
000001B8
FFFFD171
FFFFF3D2
00002B49
FFFFDE3B
FFFFF61B
FFFFF41D
FFFFDB58
0000093B
00002011
00000F9C
FFFFD45E
00000184
00001F4B
FFFFD091
FFFFFAA4
00000930
FFFFE615
000024B3
0000160F
00002804
FFFFE393
FFFFFD5E
0000134B
FFFFC916
FFFFFFAF
FFFFFAB5
FFFFD5F9
000022D4
00002036
00003271
00000722
000005A5
00002596
FFFFC962
FFFFEE51
00000635
FFFFE3BE
000033AE
0000175D
00003A67
FFFFEB0C
000014F1
FFFFFAC4
FFFFEC26
FFFFDA68
FFFFE95A
FFFFF203
0000293B
00000B07
00002734
FFFFEB02
00001C88
00001C06
FFFFD35A
FFFFE3B1
FFFFEFAE
FFFFE31C
000023D1
00001EDC
000023AB
FFFFEE3B
00001A44
000000C4
FFFFE52D
FFFFE60F
FFFFFCB6
FFFFE5BC
000030FB
FFFFFAB4
00003AF7
FFFFFBE9
000036C5
00000499
FFFFF9FE
FFFFD559
FFFFFB94
FFFFEF48
00000D9C
000020B5
00003A7D
FFFFE4B0
00003F2B
000007E7
FFFFFB78
FFFFF215
0000003C
FFFFF7E4
000023B8
FFFFFEA0
000027CB
FFFFEFDB
0000282F
00001DB1
000007B6
FFFFE85B
0000063A
FFFFE2C9
00001BCC
FFFFFA4B
00000E80
FFFFF3BB
00001823
00001164
00000226
FFFFEED0
FFFFF16A
FFFFEB3D
FFFFF99C
FFFFFC0D
FFFFF700
00000073
FFFFF795
FFFFECCC
FFFFF44E
0000096B
FFFFF526
FFFFFDEA
FFFFEDB8
FFFFEAD1
000008B1
FFFFF3BD
FFFFEF55
00001306
FFFFF8BB
0000063B
FFFFF06E
FFFFFEAE
00000839
00000614
00001045
00000B06
FFFFFDFD
FFFFEF17
000004F8
00001A81
FFFFF27B
FFFFF8D2
FFFFEA6B
FFFFF073
FFFFFE71
FFFFFCD1
000005E0
000013E8
00000DCF
FFFFF7BC
0000110A
0000151E
000016A6
0000066D
00000DF1
FFFFF534
FFFFF212
00000028
FFFFF728
00000F4A
000012EB
000006C9
00000D03
FFFFF7A9
FFFFFC82
FFFFE697
FFFFF03B
FFFFF1F9
00000F7B
FFFFEA67
000007BD
FFFFF17F
000001C6
FFFFE57E
FFFFEF34
00001722
000001A5
00002D6C
0000027F
00000EB4
0000125C
0000199F
FFFFEB7B
FFFFFAA8
FFFFDEEB
00000628
FFFFFFD5
000039EE
FFFFFF3A
00000499
00000819
FFFFF53A
000001FD
FFFFF6B5
FFFFF03F
FFFFFD72
00000118
00002FC7
FFFFD766
FFFFFC1B
00000EFF
FFFFF76D
FFFFF7BF
0000077C
FFFFF697
FFFFEE30
FFFFF1F7
000028A1
FFFFD2FD
00000A73
FFFFF8BC
FFFFECDA
00000245
FFFFFB68
FFFFDDD0
FFFFF2D0
FFFFDF32
00004109
FFFFF874
FFFFF5B4
FFFFECEE
FFFFDEE7
FFFFFE86
00000A32
FFFFF95D
FFFFD558
FFFFFC5B
00002BF6
FFFFD451
0000076A
FFFFFFAC
FFFFF53C
0000041C
00000697
FFFFD81B
FFFFD5B0
000001E9
00003BE3
FFFFE577
0000184A
FFFFF894
FFFFE1EF
FFFFFB43
0000250D
FFFFE3D7
FFFFE734
FFFFED4F
00002955
FFFFED52
00002661
00001B1B
FFFFECAB
FFFFEC77
000015B4
FFFFE9BD
FFFFE963
FFFFF91A
0000472E
0000034D
00001100
FFFFFF8F
FFFFE430
FFFFE174
FFFFFAC2
FFFFD297
FFFFE15F
FFFFF20E
00001F03
00000233
00001E62
00001CD5
FFFFED8F
FFFFE64A
FFFFFF0F
FFFFD742
FFFFE924
0000032D
00001EFA
FFFFF7C0
0000217C
000009F7
FFFFE746
FFFFE522
0000182F
FFFFE802
FFFFDA03
000020B9
00003444
000002A8
00002535
000017F1
FFFFE3CF
FFFFFBF7
000007FB
FFFFF28B
0000078B
000002F2
00002A4A
FFFFD583
000011A4
00001868
FFFFDABF
00001119
000029FE
0000042D
FFFFEDF1
0000161B
00000F01
FFFFE288
00002505
000018BB
FFFFE0AD
00000915
00001DB4
FFFFFCC4
00000077
0000270A
0000089D
FFFFFD51
00000003
00000439
FFFFE2C6
0000187E
000008E4
00000EEA
FFFFFDF3
00001C34
000003D4
00000BE6
FFFFEEE5
FFFFFB53
FFFFE2A6
00002D5B
FFFFEFCD
0000102C
FFFFF912
000011FD
FFFFE4E6
0000054A
00000FC4
FFFFFE54
FFFFF925
0000407D
00000419
0000048D
FFFFEF39
00002EE6
FFFFDCBA
FFFFF34F
FFFFEC34
FFFFFE9E
FFFFE1F5
00002D39
000004B9
0000326B
FFFFE402
00001E37
FFFFE015
00000535
FFFFF5B3
000003AF
FFFFDD11
00002039
0000089A
0000282E
00000F71
00004A10
FFFFF43D
FFFFEEA8
FFFFE7EA
FFFFFDCD
000000B8
00001758
000008BC
00003925
FFFFFFAB
00002237
FFFFE45C
FFFFEAD2
00001480
00000373
000004B8
FFFFFE06
0000037A
0000023D
000007E3
000025AA
0000126F
FFFFEF64
00000E48
00001551
000004C7
000005E1
FFFFFAAB
000010EC
FFFFF151
00001CD3
00000CF2
FFFFEC03
FFFFF4C7
FFFFF32F
FFFFEEDB
FFFFE988
00000279
000001CD
FFFFF786
00001258
00000A7A
000003D3
FFFFFA8A
00000469
0000002F
0000125D
FFFFF490
FFFFFBDD
00001519
000002D9
00000072
FFFFFA8D
0000131F
000008BB
0000028B
FFFFFD6A
FFFFF73A
FFFFF656
FFFFF635
00001257
0000120E
000016A0
FFFFF4AC
00000E18
FFFFF2D6
00000796
FFFFF250
000010FF
FFFFFE8C
FFFFFCE4
00000C66
FFFFFC36
FFFFF4B0
FFFFFDA5
00000038
00000A03
FFFFEA64
FFFFE257
FFFFF1E4
FFFFE719
00001C3F
00000801
FFFFF606
00000C72
00000E3A
00000A83
FFFFEA9C
FFFFDB5E
00000F3B
FFFFD987
000011D1
FFFFF14C
FFFFF2D4
000015DC
000016DB
FFFFE97A
00000338
FFFFD759
00001D64
FFFFDBBD
00002673
FFFFF2EF
00000BFE
FFFFFB46
FFFFF75B
FFFFEB7A
00002484
FFFFEEF2
000014AE
FFFFCC9A
00001F52
FFFFFBFE
FFFFF533
00001C16
FFFFECC5
000001CF
00002F18
FFFFDA6C
0000223C
FFFFF821
000027B9
FFFFF5EE
FFFFF24F
000005C6
FFFFF79E
FFFFE282
0000304D
000005E0
0000052C
FFFFEC50
00003604
FFFFFE3C
FFFFFE86
00000988
FFFFF49F
FFFFDFF0
00001B06
FFFFF388
00002193
FFFFE0B1
0000330F
000002D6
0000082B
0000125D
FFFFE912
FFFFC9EC
00001877
FFFFEF91
FFFFF339
FFFFF2C3
000038FA
00000079
000017DA
00000A81
000003E4
FFFFE0D3
00001850
FFFFF3E4
000010F4
FFFFF541
000045C4
00000A45
00000270
00001844
00000197
FFFFE14E
0000128E
FFFFFD22
FFFFF879
00001959
00005130
00001872
000011B3
0000213B
FFFFF298
FFFFD755
00000D6D
FFFFDEAA
FFFFE079
00002296
000032D4
000006CA
0000138F
000015FB
FFFFFBD3
FFFFD7B4
000026DB
FFFFFEEE
FFFFECE6
000017E6
00002AD5
00000ECB
00000319
FFFFFFAC
FFFFF9A1
FFFFC869
00001918
FFFFFD03
FFFFE287
000030F3
0000222B
FFFFF46C
00000403
000001F3
FFFFF62D
FFFFC92A
00003A10
FFFFFA0D
