FFFFF097
00000CE3
000015C0
FFFFFAD4
FFFFEFD2
000015FD
00000D0B
FFFFE771
00002D55
FFFFFE35
FFFFCC17
00002353
00002010
000013F9
FFFFDB1B
00001CAE
00000C9C
FFFFF587
00002A63
00000BD8
FFFFBA65
00003B62
FFFFFE19
00001845
FFFFFFF3
00002723
FFFFEC3A
0000074E
00003CE5
00001681
FFFFD3B2
0000283B
0000167B
00001C9B
FFFFDD4E
0000255C
00000560
000014F7
0000388D
00000D4E
FFFFD1F5
00003180
00000EBE
000028C3
FFFFEC19
00000944
FFFFFA37
FFFFFD10
00004992
00000FC0
FFFFD5D1
00003638
00001BA5
00001CCC
FFFFF04C
FFFFE543
FFFFEF1C
000020D5
00003A59
000016E8
FFFFFC7C
00004824
00001D81
00002D18
FFFFD651
FFFFF39C
FFFFFA40
00003A7D
0000451B
00000FED
FFFFFBCF
000031BA
00000E1E
00001F64
FFFFFCD2
FFFFEBA4
0000280C
00003F8E
000000EB
FFFFFAA7
FFFFDB05
00002718
FFFFE5CB
000017BA
000004A1
00001498
00004C75
0000334F
FFFFFC0B
0000074C
FFFFBCFB
FFFFE9E2
FFFFCBC8
00000966
FFFFE7A3
0000306B
00003D04
00004914
FFFFE56E
00002D0F
FFFFDA0E
FFFFCDF7
FFFFF56A
FFFFEA2A
FFFFDB61
000020BE
00002105
00003F5F
000003A1
0000104F
0000072C
FFFFE17F
00003275
FFFFDCCB
FFFFE9F1
00003611
FFFFFEA8
000024AF
000018EA
000013AA
00001D40
FFFFF859
0000076F
FFFFCE85
000011D9
00001EA4
000007C0
FFFFFDF0
00003E8C
FFFFEBC6
00002AF8
FFFFF981
FFFFFB5F
FFFFE4F2
00000400
000043F7
FFFFFAB9
FFFFE015
00004700
00000034
00000753
00000528
FFFFF4D7
FFFFDC67
0000179B
0000364B
FFFFF323
FFFFEDE2
00003853
FFFFFA4A
000004E0
FFFFF9CF
FFFFCF0A
FFFFD36A
000005F7
00002AE6
FFFFD6EE
FFFFD61B
00003641
00000473
FFFFFA91
FFFFFA78
FFFFD3C1
FFFFE286
00001ECC
00004336
FFFFDC9D
FFFFE3E9
00003A2B
FFFFFE47
00000F04
00000CC2
FFFFB29E
00000965
00000425
00001B23
00000538
FFFFDDD3
0000370E
FFFFBFED
000007AC
0000140B
FFFFAA95
00002BCC
FFFFF2A7
FFFFDF48
000025B3
00001C75
00002F75
FFFFD43E
FFFFF495
00000806
FFFFBCEC
00004357
FFFFCE30
FFFFCB96
00004D26
000024DC
FFFFF78A
FFFFE28C
FFFFD329
00001C40
FFFFFE38
00001645
FFFFE7AE
FFFFFB56
000045FF
00001A7A
00000EBD
FFFFE2CC
FFFFE792
FFFFF835
00001BA2
00001E74
000006C1
FFFFFBB3
00001C44
000019E9
0000102F
FFFFFCD4
FFFFDD26
00000743
FFFFF92C
00001ADC
FFFFE957
00000EEC
00001C0E
000003EE
FFFFFDF5
00000190
00000AF9
FFFFF71A
0000001A
FFFFEF19
FFFFE106
00001BFE
00001F00
FFFFE6C4
FFFFF949
FFFFFB61
00001552
0000018C
FFFFDB19
FFFFE141
FFFFDA11
00003839
000019B3
FFFFE34D
FFFFCCFA
FFFFEADD
00003718
00001D89
FFFFD8B9
FFFFD700
FFFFD19C
00002169
00003585
FFFFF851
FFFFF0E0
FFFFE792
00001583
0000125C
FFFFF273
FFFFCD82
FFFFE461
000037EB
00002671
FFFFFF87
0000176B
FFFFF5B3
00000EA1
000015C3
FFFFFC4F
FFFFDEDE
FFFFECB3
0000177D
FFFFF4E5
FFFFF559
00002BEE
0000098F
FFFFD06F
0000080E
00000261
FFFFF7DE
FFFFE7AF
FFFFF980
00000A01
FFFFF2AD
00004B5B
00002BDA
FFFFC0F8
000037B0
00000988
00001E10
FFFFCDC9
000007B8
00000B64
0000036C
000024D8
00003C70
FFFFCCBF
000023B8
00001BA5
00001855
FFFFE58E
000004B2
00000D04
FFFFFA7C
00004414
00002E11
FFFFD05F
00003075
00000480
000009F1
FFFFF3F4
0000047C
FFFFE59D
FFFFFF58
00004C65
00001E67
FFFFEAC7
000016A8
00002968
0000229B
FFFFF93F
0000008D
FFFFEFBC
00001D98
0000341B
00001CD5
FFFFFAA8
00002B71
00001E6D
00000733
FFFFDDFA
FFFFDD64
FFFFC8A9
00002ABA
0000403A
00000D7F
FFFFF5C2
00003927
000033C2
0000286C
FFFFF13F
FFFFD685
FFFFC90D
00003E93
00002829
FFFFFCFF
000004CA
00002B38
00000464
00004EEE
00001D5C
FFFFE489
00001FA3
00003D5A
00001893
000005AC
FFFFBDE5
00000164
00000380
00002A3D
00002001
00001859
00003001
000053FA
FFFFFC84
00003102
FFFF9FF0
FFFFDB00
FFFFFA5C
000015A0
FFFFFBC3
0000459E
00002F17
0000586D
FFFFF22B
00002743
FFFFD2D3
FFFFE325
00000D2F
00000684
00000646
000030ED
00001227
00002EB9
0000062F
00002890
FFFFF73D
FFFFED58
00001F7E
FFFFD38A
00000735
000038ED
FFFFE9B8
0000208E
0000208D
0000089C
00000708
FFFFF440
00000C23
FFFFE4F2
0000014E
00001FD1
00000D01
000001BA
00001C12
0000114E
00000330
00000BE4
00000FB1
FFFFF76A
00001CA9
00003E7F
FFFFFCC3
FFFFF9C7
00002D9D
000014A1
FFFFEF66
00000622
000002AB
FFFFFC5D
00001F14
0000483F
000001D7
FFFFE8A5
00003626
000015CE
FFFFF428
FFFFFE70
FFFFDF11
00000E77
00000C4F
00003382
FFFFDE5A
FFFFE0D5
00003624
0000012B
000006F5
000002EF
FFFFE537
000002BB
00000125
000035C4
FFFFC51B
FFFFE73D
00003209
00000CEA
FFFFFE25
00001258
FFFFB695
000003CD
0000342E
FFFFFEAA
FFFFBAD4
FFFFEEA1
00002510
FFFFECB4
FFFFEFEA
00001E30
FFFFC696
00002DF6
000030DC
00002070
FFFFD5B3
FFFFEA7D
00001699
FFFFDC09
00001F7F
00000CF2
FFFFBBEC
00003B01
00001C7A
00001C06
00001A17
00001211
FFFFF6D4
FFFFCF55
FFFFFCF0
FFFFF124
FFFFFA45
FFFFEE36
00001712
000008B3
00002B02
00001B56
FFFFFA11
FFFFD25D
00000DBA
0000015A
FFFFFB7E
FFFFE751
FFFFF9CC
00001413
00001833
FFFFEA83
0000020A
FFFFFA67
00000961
FFFFE3B7
FFFFEF7F
00000A85
000010E2
FFFFFECE
00000D86
0000146F
FFFFF60D
00000FEF
FFFFF88A
000009B6
FFFFFA13
00000B5A
FFFFE0A0
FFFFF47B
00000611
FFFFDC38
FFFFE6A1
0000014F
FFFFF8BC
00000D5D
FFFFEB90
FFFFF590
FFFFD323
000005EB
0000206A
FFFFF8CC
FFFFEA5E
FFFFDB95
000025ED
00002B3F
FFFFFC03
FFFFEB99
FFFFF1F4
00000BEA
00002820
FFFFFDF7
000007D2
FFFFF948
0000104B
FFFFFE73
FFFFF722
FFFFC353
FFFFDAC1
00003D1A
0000127A
FFFFFD9E
00002CF8
000022FD
FFFFDB84
FFFFF092
00001FAC
FFFFDDFE
FFFFE5E2
00000608
00000920
00000D14
00003ED2
0000224D
FFFFC4FC
00002C65
00000E7E
FFFFE40A
FFFFD2D7
FFFFF8F3
FFFFE7CA
000000D0
000049BB
0000441C
FFFFCAAE
000021C4
00002B81
00000907
FFFFC191
FFFFFDA0
FFFFF5AC
FFFFF1DC
00004A5D
000032DA
FFFFC5CD
00001FF3
000005B8
000007B5
FFFFF101
FFFFE602
FFFFFB02
FFFFF515
000020DC
000042C9
FFFFEB6B
00001CBF
00000AAD
00000C48
FFFFF310
FFFFE374
FFFFD4DC
00001389
00002BA6
00000D22
FFFFF044
00001371
00001A12
00002B17
FFFFDF13
FFFFCBC1
FFFFDC1E
000017FE
000046ED
0000175B
00001D4D
00001B7E
00003206
00001894
00000D67
FFFFD24B
FFFFBF99
00002EF6
00002D25
FFFFFE30
0000052D
00001C58
00003FFD
00002880
00004908
FFFFD550
FFFFD6A5
0000465F
00002E3D
00000AD7
FFFFFD2F
00002465
00001FA3
00003B55
0000421A
FFFFEF68
FFFFFA5D
000051C8
00000AD2
00000084
FFFFA95F
FFFFF494
000013F7
000046D0
00002E7E
0000393D
000039E8
00005741
FFFFF153
000017FD
FFFF9BB0
FFFFF457
00000567
00002374
000029DF
00005113
00000529
000055DC
FFFFFC5C
000043F7
FFFFB1A0
FFFFFC2E
00001CCE
FFFFF8FA
00000D3F
000028B8
FFFFEDE7
0000270A
000028D0
000033D7
FFFFE220
FFFFFF82
000029C7
00000508
FFFFFEEC
000030C2
FFFFF873
00002E93
000017AE
000031F8
0000062C
FFFFE98D
00001CA7
FFFFF826
FFFFF98A
00002FE4
FFFFFD45
FFFFFA3D
0000297B
00002C20
FFFFE8D5
FFFFF525
000003E3
FFFFEBA1
00001698
00002564
FFFFED21
FFFFF70C
000022F3
000017D8
FFFFF3A7
FFFFFDF4
000003F9
FFFFF80D
0000037C
00002F50
FFFFF0B6
00000C6C
00001C7D
000025D3
00000B05
00001017
FFFFF4BE
00000038
FFFFF163
00003260
FFFFD2EB
FFFFF88D
00002216
000019BB
00000F84
00000B15
FFFFDD6E
00001371
FFFFFBB5
0000024E
FFFFCBF5
FFFFD21F
000017D0
00000DCB
000028B9
00003C93
FFFFD21C
00002D5A
FFFFF2E7
FFFFFA20
FFFFBE9D
FFFFF2C2
00002F34
00000647
0000292E
00001CE1
FFFFD2C4
000033EF
00001815
FFFFDF89
FFFFCC1D
FFFFC56B
00000748
FFFFDAFC
0000273C
00003425
FFFFC120
0000166D
00002756
00002A22
FFFFFD80
FFFFD659
FFFFFCE0
FFFFC454
000030CD
FFFFFE88
FFFFDB75
FFFFFCE2
0000377B
00001D49
00002453
FFFFF502
FFFFDB7A
FFFFE1BE
00002B1A
FFFFCF6C
FFFFF1C0
FFFFCECE
00001E69
00002664
FFFFF3AC
0000060D
FFFFEB99
000001ED
00000EF4
FFFFEEC8
000007CF
FFFFFCA4
