00002F3F
FFFFE2CB
000022EA
FFFFF730
00001E5B
00001687
000008D0
00001149
00001FA1
000016D8
00004191
FFFFF502
00000AB2
FFFFFEB8
00000AA0
000004E4
0000125D
FFFFFF14
00000433
00000B24
00002A04
FFFFECF0
000028A1
0000100B
FFFFFE6C
FFFFFC03
FFFFE848
FFFFEBAF
00002D4E
00000004
00005830
FFFFD67C
000030D6
00001F99
000014E6
FFFFD782
FFFFD7F4
FFFFFB3E
0000283A
000009C0
0000416B
FFFFF1A0
00002840
000016B5
0000101C
FFFFCB16
FFFFE7F8
FFFFE1F1
000009CE
FFFFEEAB
00003D61
FFFFF79A
00002238
000007A0
00001BCE
FFFFEB3A
FFFFEA7C
FFFFF8A3
FFFFFB32
00002530
000037FD
FFFFF271
00001CEE
0000062E
00001785
FFFFF898
0000018D
FFFFE18A
0000022D
000008F2
0000176F
FFFFF53E
000035C5
FFFFF4BE
00001990
FFFFDD04
00001783
0000025B
FFFFF1FA
000006B2
00002A24
FFFFE195
00002221
FFFFE027
00001034
000002FD
00000AC1
00000170
00000844
000011A7
0000329E
FFFFF0B5
00001B3F
FFFFDDF5
000009BE
FFFFF1A0
0000136F
00000515
FFFFF943
000012E5
000024FD
FFFFFE4E
000026A4
FFFFDAD6
00001911
00001182
000026D7
00002324
000005B1
FFFFE808
FFFFFE88
FFFFF8AE
00001A1A
FFFFED13
00000EE7
000011E1
00001C3D
00000CEB
FFFFD876
FFFFE2AD
00002560
00000E9D
00002593
FFFFDA9C
000016FE
00002B7D
000029AD
000029CB
FFFFDADB
FFFFCB47
00003291
00003C10
000033B0
FFFFD163
FFFFEFEA
00004CE2
000035DC
00005BF4
FFFFCF9F
FFFFDD9D
00003291
000044E4
00000E8C
FFFFDAA2
FFFFD60E
00003B1A
000046C0
000049F6
FFFFED76
FFFFFA30
00002571
00001A6F
00000D9F
FFFFE0A1
FFFFE0CF
000007F4
00001958
00001DEA
FFFFFAC9
FFFFFB55
FFFFF9D2
FFFFFA6A
FFFFF4F7
FFFFE384
FFFFE7C8
00000A09
FFFFEF60
00001A2E
0000084C
00001031
0000139E
00000A9D
FFFFE2FC
FFFFF30E
0000036E
00001CBE
FFFFDE5C
FFFFFDD6
FFFFE652
00000AF4
000016AB
00000B2B
FFFFD910
FFFFE928
00000BB2
00001CD7
FFFFFC9F
00000744
FFFFE469
000008D5
00002570
00000261
FFFFD467
FFFFDED8
00001776
000000AC
000000F7
FFFFF456
FFFFE641
0000201B
00001604
000000AF
00000199
FFFFD7B2
000025AF
FFFFE7EB
FFFFD597
FFFFBF37
00001336
00000A5D
00003560
00000ABE
FFFFE80C
FFFFC5A6
0000232A
FFFFEA05
00000946
FFFFD7F1
0000050F
000008E1
0000229F
FFFFF64F
FFFFEF90
FFFFDCEE
00002861
FFFFDE36
FFFFFADA
FFFFCEBF
FFFFF6FC
00001480
00000F71
FFFFF614
FFFFF2AF
FFFFC41F
0000134E
0000055C
00000C01
FFFFFC54
FFFFF8CC
00000882
00002172
000012EE
00000125
FFFFEF7C
000017E6
0000111C
00000DAF
00001C9B
FFFFF61D
000013B0
00001B8E
000015AA
000010AC
FFFFF30A
00000866
000025C6
FFFFF511
00000CAA
00001796
00001284
00001AEF
00000183
0000044D
FFFFEF12
FFFFFDE4
00001BD4
00001297
000007A9
00000EFC
00001B12
00002216
FFFFE2E0
00002674
000010A2
00000235
00003E08
00000AE8
00000779
FFFFFDAB
0000198D
00002287
FFFFEF37
00002239
00000973
FFFFFF28
00003364
FFFFFD5F
00000A5F
00000AB9
00000F8F
000020AA
FFFFFDA6
00001568
00001859
00000BE7
00002C0F
000008EE
0000148E
FFFFF492
FFFFF5AB
00001C95
FFFFFCFD
00000F52
0000167D
00001316
0000046F
FFFFD9BC
FFFFF4F6
00001504
00000351
0000484F
FFFFF93B
0000158A
0000220B
00000939
FFFFDF2A
FFFFC33E
000000B9
00000C8A
00001007
00004BB2
000004C0
000000BD
00001922
00002739
FFFFDAA6
FFFFD05F
FFFFC22C
FFFFDE80
00000448
00003DA5
FFFFEA11
00000521
FFFFEFDC
0000181A
FFFFCF08
FFFFE78D
FFFFD743
FFFFF39D
00000BEC
000030FD
FFFFEF33
000033CE
FFFFEE63
00001A01
FFFFE626
0000112E
FFFFCCA6
FFFFEDE4
00003429
00003172
FFFFFBA1
000029E0
FFFFE81B
00003634
FFFFF409
0000158A
FFFFF896
00000754
0000106F
000019D9
FFFFE8A2
00002541
FFFFD7EE
00001E90
FFFFFECD
00001145
FFFFFE55
FFFFF2B3
00002303
00001744
000012E0
00003811
FFFFD8D8
000023F1
FFFFF4A2
00002580
FFFFF7E4
0000023D
00001826
00002960
000015F1
0000306E
FFFFBEFB
000007CD
00000085
00001D07
00001235
FFFFE867
FFFFF63E
00000F30
FFFFFCE2
000018CF
FFFFC465
00000E47
0000118F
000025D2
00002235
FFFFE8C1
FFFFE2A8
000027ED
00001ED5
000025BF
FFFFCD12
FFFFFD25
0000350B
FFFFFD60
000021F3
FFFFB7BB
FFFF9D37
0000417F
00003E54
0000316B
FFFFD852
FFFFEAC0
00005E5F
0000141A
00004A86
FFFFCB21
FFFFA5D5
00006820
000061E6
FFFFFF17
FFFFDFC8
FFFFBB1F
00005AC4
000055FB
00004ACD
FFFFE5AA
FFFFD942
00002793
000034B1
FFFFF0DE
FFFFEECF
FFFFC24D
00000FC4
00001D79
00001AF1
FFFFFE21
FFFFF486
00000396
00000219
FFFFF5B6
FFFFE0F2
0000029B
00001106
00000266
00001489
0000060F
FFFFFDBA
0000173E
00000078
FFFFDDA4
FFFFF387
000001F9
00000E76
FFFFF6C1
000001F6
FFFFF86C
FFFFFA42
00001362
FFFFEEEF
000002F5
FFFFF0B5
00002091
FFFFFFE6
FFFFEB54
0000016D
FFFFDB47
00001C0E
00001E6D
000009ED
FFFFE0ED
FFFFF7AE
0000382C
00001BBF
FFFFDC94
FFFFD304
FFFFEA33
00001121
0000335B
FFFFFCE0
FFFFE107
FFFFE300
00002118
0000078E
FFFFF273
FFFFB3CD
FFFFEAC8
000020AF
00001680
000008FF
FFFFEC2B
FFFFBDB8
00001FF5
FFFFFA4B
FFFFF7DF
FFFFDFDE
FFFFE883
00001744
00000983
000010B9
FFFFED93
FFFFD7D8
000014CF
00000946
FFFFF504
FFFFE4E4
FFFFF501
0000280C
00000772
FFFFFA1B
0000027A
FFFFF514
FFFFE5DC
FFFFF889
FFFFEFEB
FFFFFB93
FFFFF84E
00002444
FFFFF9E3
FFFFEB88
00002C4F
FFFFEC4F
FFFFF1A9
00001490
FFFFF29F
000010C9
FFFFF143
0000182E
FFFFF7C7
FFFFED99
00001F99
FFFFFF82
FFFFE8AB
0000219A
FFFFFB79
000036E4
FFFFE5B0
00003412
00001948
FFFFF930
0000374B
00000F65
FFFFFDF4
00004DFF
00001A72
00002AAF
FFFFEE65
00001EA5
FFFFFEB4
00000421
0000125D
00001992
FFFFF400
000043DC
FFFFFB99
00002CC8
FFFFEDE0
00001ADF
0000179A
FFFFF74E
00003FCA
00002052
FFFFFC9D
00003B4A
00000234
000028FC
FFFFEC04
0000074E
FFFFFB1A
000001E8
00001DDF
00000753
00000088
00004958
FFFFF8EC
0000129E
FFFFDF04
FFFFF7F2
00003B09
00000642
000015DF
00000607
000019FD
0000266F
FFFFCDA4
0000202F
00000516
FFFFE509
000047DA
00001882
FFFFFC3C
FFFFFA93
FFFFFB3F
FFFFEDF6
FFFFC5AB
FFFFE386
FFFFEE13
0000100C
00005974
00002422
FFFFE8D4
000020D6
0000055F
FFFFD107
FFFFD3C1
FFFFCE56
FFFFE7C3
0000228D
000029E9
FFFFFF32
000001FB
FFFFEF0C
0000365F
FFFFD86C
FFFFFA89
FFFFBF55
FFFFDD50
0000275E
000025B9
FFFFF63F
000010CE
FFFFF082
000044FC
FFFFD918
00001065
FFFFDF42
000002C8
00001109
00001FB0
FFFFEFD1
0000414F
FFFFE60A
000046F5
FFFFE2C9
FFFFFC55
FFFFDE82
0000029B
00001569
000015D8
FFFFF50D
0000269B
FFFFE69E
00002392
FFFFDFD2
FFFFFA25
FFFFEEB7
00000AA1
00000F6D
00000428
000001CB
00003B6F
FFFFC090
000021E8
FFFFF0D3
00000776
FFFFEEBF
00000BAC
00000FF0
00001B5D
FFFFE359
000033B3
FFFFD261
000029BF
FFFFFA49
FFFFF499
0000071E
FFFFFDB1
00000B0B
00002409
FFFFE9E6
00002C34
FFFFBEB1
000021A2
FFFFF315
FFFFDD3B
FFFFEB88
FFFFF6B7
FFFFD3D0
00001F13
FFFFFCD1
000042A4
FFFFDD6A
000006A4
0000221F
FFFFCF21
00002E8F
FFFFC8FC
FFFFBC7F
0000479D
0000230A
000021EC
FFFFC3F8
FFFFCD82
00002E7C
000002BF
00002F67
FFFFCBFD
FFFFB0EC
0000599F
0000490B
FFFFF6E6
FFFFEA0A
FFFFD3D6
00005C8D
00003416
00004130
FFFFE6F2
FFFFC9CA
000052E9
000035B5
FFFFEBD2
FFFFE73B
FFFFE20B
0000201B
00002378
0000352B
00000AAD
000014DC
00000D92
00000C4E
0000010C
FFFFF753
FFFFD71A
FFFFF1C4
0000124C
00001709
000008EE
00000D5B
FFFFFFC9
00000D85
00000887
00001879
00001374
000000FF
FFFFE529
FFFFEF0C
FFFFDDF7
000007E2
000013DF
FFFFEBC3
FFFFFE03
FFFFE8A2
000030B6
0000068D
FFFFF545
FFFFFE0C
FFFFC965
0000282E
000028B9
FFFFF497
FFFFD6AB
FFFFF7A4
00003E44
00002FD9
FFFFD4B7
FFFFE3E8
FFFFEFEA
00001B23
00002483
FFFFF9C0
FFFFE14E
FFFFD2D7
000034CC
FFFFF35C
FFFFE850
FFFFC37A
FFFFE959
00001D8D
00001283
0000096C
FFFFE92A
FFFFDC73
FFFFFB6D
FFFFEF6D
00000EF7
FFFFDDB5
FFFFFEB8
00001948
00000A73
FFFFF4E4
000006D6
FFFFF447
