0000056F
FFFFE501
00003CE5
000003F0
0000039A
FFFFEC9E
FFFFF66A
FFFFD786
FFFFFCEF
FFFFFD36
000007A7
FFFFCAFE
00003587
00002204
FFFFF4C1
00001DAF
00001E6E
FFFFDBB3
FFFFFA57
FFFFE481
FFFFDD24
FFFFD2B5
00004AB9
00000B1F
FFFFDFF7
FFFFFEB0
00003329
00001019
FFFFF0A5
FFFFD024
FFFFCA24
FFFFD0DF
000051CC
FFFFD6CC
FFFFF945
FFFFE7B4
00002637
0000341B
FFFFF237
FFFFEADE
FFFFDCC0
FFFFEFD1
00004136
FFFFCD97
FFFFE7E3
FFFFCA18
00001BD5
00000919
FFFFEED1
FFFFE220
FFFFFFD2
FFFFFDEA
00001357
FFFFF0B8
FFFFF88F
FFFFEA40
0000140A
000002F9
00000779
0000106E
FFFFF5A0
FFFFFD5A
FFFFF64A
FFFFF358
0000009C
FFFFF77B
00001913
FFFFE6FC
00001539
000008DB
0000194B
FFFFFEFA
FFFFE623
FFFFF393
000018AD
00000C55
00002689
FFFFE3EB
00000B75
00001D94
FFFFFEAA
FFFFF0A0
00000198
FFFFF79D
00002024
FFFFE855
00000E48
FFFFDEBC
00002B1A
0000053B
00000759
FFFFD2F3
00001399
FFFFD2FC
000014E4
FFFFCAF7
00001E02
FFFFFED5
00002790
000013FC
00000424
FFFFCAEA
0000364C
FFFFE803
000017CA
FFFFCC8F
000017D2
FFFFF67E
00000362
FFFFE33E
00000BBD
FFFFCD9B
00004E5F
FFFFEC82
00000AA7
FFFFF4BF
00000548
FFFFF66B
FFFFE67C
FFFFDB61
00000310
FFFFF6AC
00004FFB
00000EC8
00001250
00000F6F
FFFFF3DF
0000079F
FFFFD331
FFFFC545
00002E25
000007E9
000041C9
0000049A
00001CA1
000017F9
00000E3B
0000162E
FFFFDA73
FFFFC81A
0000228C
00001419
00000D74
00001EE5
FFFFF60C
00002DA6
0000145B
00001635
FFFFC8F2
FFFFCD24
00000C01
000008E2
000010CD
00001FBC
FFFFE01A
00002803
000023CF
00003B44
FFFFC429
FFFFC729
FFFFFA74
00001A76
000000BC
00002482
FFFFCFB5
000051D2
00002B37
00003AA1
FFFFDD36
FFFFCEE1
FFFFF663
000010A1
00000DF5
00000EB4
FFFFCCAE
0000428C
00000C19
00005DFA
FFFFF860
FFFFF610
FFFFFAB2
FFFFFE73
00000577
FFFFFC5E
FFFFF9DB
00001716
00000976
0000786B
00000DCD
0000105E
FFFFCBDC
00001972
00001183
000001E1
0000102D
00001DFF
FFFFF4FC
00004DB6
FFFFFA58
0000264C
FFFFCF1C
00001BFE
00001C28
00000F21
000016EE
000011E0
FFFFFA8E
00002FDD
FFFFE687
FFFFFD38
00000B46
000032D3
00001B49
00000C41
00002004
FFFFF83C
0000115E
00002195
FFFFEC57
FFFFEA69
00000726
00000977
00003B63
000010CA
00003BFD
FFFFF710
00001096
FFFFEEC6
FFFFF111
00001114
00001FC2
FFFFFEF2
0000260D
000020E3
0000262D
FFFFEBC4
0000033D
FFFFF8CC
00000F2C
FFFFFFC1
00000C82
FFFFFC53
000029B2
0000063C
00001C23
00000174
0000136B
FFFFE0E1
0000040F
000012F4
00000D87
FFFFFDF5
00002643
00001A3A
0000099D
FFFFF780
00002053
FFFFECEA
00000CC3
FFFFFEB7
00000673
FFFFF947
000036A2
00001522
00001E9F
00000FA9
00001FE0
FFFFD901
FFFFFB48
FFFFFBF5
FFFFED2B
FFFFEAE9
00001EBB
000003C0
000013EE
00000535
00002940
FFFFD556
0000063C
FFFFFB43
00000788
FFFFC920
00003E78
FFFFFAB3
0000109B
FFFFF9B9
00002EDF
FFFFE468
0000215F
FFFFEFC5
FFFFF91E
FFFFDD57
00002E04
0000059A
FFFFFB0C
00001A60
00002698
00000124
00001C40
FFFFDDA1
FFFFEE93
FFFFBE3C
00003495
00000995
0000071C
0000088D
00005BF1
00001F7B
FFFFE683
FFFFBFEA
FFFFC39E
FFFFF226
00005E94
FFFFCC93
FFFFED5E
FFFFBB6C
0000190A
0000213D
00000813
FFFFE8DE
FFFFE4EE
FFFFF9F9
0000395B
FFFFC40F
FFFFF18A
FFFFD31F
000016E4
FFFFFD6E
0000309C
00000A6C
FFFFF4F7
FFFFEF51
000011FE
FFFFDFC7
FFFFE705
FFFFF6E0
0000005E
00002018
000010A8
FFFFDFD6
FFFFFF23
0000021C
000003FF
FFFFFB71
FFFFF68F
0000053B
000011B7
00000F34
0000123B
FFFFF355
FFFFF694
000011C1
000006BE
00000FCD
FFFFFD29
FFFFE409
00001720
FFFFDFD2
FFFFF7CB
00000C3F
00000C55
FFFFE04B
FFFFFA8C
FFFFF152
00000E7A
FFFFFC46
00001FB0
FFFFD7B2
00004050
000030F8
FFFFE735
FFFFC04B
0000136E
FFFFD97F
000019F6
FFFFDC48
00002E20
000001DF
00003F46
000004B4
FFFFF45C
FFFFD05A
00004086
FFFFF09D
00002BFD
FFFFD98A
00001F57
FFFFD5C6
00002A8F
FFFFF692
00001167
FFFFBD13
00003DFC
FFFFE276
00002C3B
000000AC
00000F43
FFFFE603
00000CE5
FFFFF03E
00000EF1
FFFFE998
0000422B
FFFFEF6E
00000A18
00002401
00000F40
0000063C
FFFFF7FA
FFFFF698
0000082E
FFFFD0CF
0000322B
000006FF
FFFFF60D
00002FE7
000017D1
FFFFFC84
FFFFDD03
FFFFDB4A
00001BE2
FFFFEE63
0000055E
FFFFF84A
FFFFEDDC
000038B6
0000086D
00000A83
FFFFEA6C
FFFFC954
000021B3
FFFFE1B3
FFFFFCEB
00001F65
FFFFD63E
0000300E
00002B8C
00002B11
FFFFE2EB
FFFFCB6B
00000D58
00001049
0000070A
0000266C
FFFFCCBD
00004F0C
000033B1
00002A37
FFFFE0DC
FFFFC868
FFFFEEAA
FFFFF39D
FFFFF657
00001B4A
FFFFD584
00003CB5
00001900
00003D3A
FFFFF8FC
FFFFD540
FFFFE33B
00000E64
00001103
00002081
FFFFDBB8
000026C9
FFFFF822
0000591A
00000BE9
FFFFF4EB
FFFFC6B2
00002BE0
0000061E
00000A2F
00000866
00000D7A
FFFFE9AA
00002DA8
00000915
FFFFFC20
FFFFF138
00003422
00001223
FFFFFC46
00001934
000004F6
000011F0
000021A0
00000A8B
00000715
00000CBA
00000B53
000010FE
0000090F
00003179
00000049
00000B43
FFFFEF0C
000009A6
FFFFF75A
FFFFFDB1
00000186
00003069
FFFFF799
000011AB
FFFFF5AF
00001AB6
FFFFDCA8
FFFFFCBD
FFFFFBF8
000003AC
00000B70
000022D0
000001BF
000014CC
0000091E
00003698
FFFFE2F8
00000337
FFFFFE53
000009C9
FFFFEEF9
000026C4
00000CAA
00001168
FFFFF8FC
00002B24
FFFFCFE2
00000DBB
FFFFEE9B
FFFFFBF6
00000CA8
00000EB8
00001DB3
00000820
FFFFEB83
0000353A
FFFFDABA
0000127F
000007DB
000017D4
0000027C
0000083E
0000129A
000018DE
00001797
00004070
FFFFD322
00001EFE
0000108A
00000F0A
FFFFE8E9
000007AA
FFFFF1CE
FFFFFF10
00002001
0000233A
FFFFD911
00001147
00000095
FFFFEC00
FFFFDF08
000021F5
0000060C
00000DEB
0000085E
00001C8D
FFFFDB33
00000704
FFFFEF10
FFFFF797
FFFFC399
00001F27
FFFFF0FC
FFFFF264
00001000
00004352
00000078
FFFFF22A
FFFFDA9F
FFFFC78C
FFFFC181
00003E73
FFFFE7A4
FFFFECAC
FFFFFB3C
0000300C
0000287C
000003B4
FFFFCD2A
FFFFA925
FFFFCAC8
000054FF
FFFFEC17
FFFFD60C
FFFFC373
00000144
000017E9
FFFFEAE1
FFFFDE86
FFFFE010
00000792
00001716
FFFFE157
0000021F
FFFFF150
0000046C
000010BF
0000223D
00000F57
FFFFF914
00001105
FFFFFDB8
FFFFE08C
FFFFEE46
FFFFE646
FFFFEBFC
00000E0B
00000B3A
00000561
0000126F
00000FED
00000C27
000007DA
FFFFEC2F
FFFFF50D
FFFFFD7D
00000C13
FFFFFF53
FFFFEFC4
FFFFFA12
FFFFE95C
0000206F
FFFFFE3C
000007A9
FFFFE927
000009B7
00000193
0000237B
0000002E
FFFFF55C
FFFFD388
FFFFE7B6
FFFFE371
FFFFFDA2
FFFFFAE3
00001761
FFFFD558
00002A1D
00001D6F
FFFFFA99
FFFFD3A2
00001609
FFFFD0CE
0000313F
FFFFBC52
00002FAA
FFFFE272
0000154F
00000601
FFFFE1B4
FFFFC0D7
00003457
FFFFF3E4
00002052
FFFFF253
0000176E
FFFFD350
0000064E
0000091C
000008CC
FFFFDEEB
000029BC
FFFFDF10
000002B3
00000D1F
00000C40
FFFFC6F3
0000318A
000019C2
000000D0
FFFFD653
00004477
FFFFF7BE
00002172
00000969
00001979
FFFFFAAC
00002070
000014BC
FFFFF6F5
FFFFC9B9
000035B8
00000AC5
000002ED
000017F7
00001513
FFFFFDA1
0000107C
000005BF
00000DAD
FFFFD423
00001659
FFFFF992
FFFFD882
00002F02
00001CED
000003B8
00001640
FFFFEF7E
FFFFE995
FFFFE704
000012C6
00000D03
FFFFD5C3
00004623
00002216
FFFFF573
FFFFEC90
FFFFF572
FFFFEEAE
FFFFD4F4
00001DA7
000021E8
FFFFBF09
00002B80
00001F3E
00000447
FFFFFC1B
FFFFDE61
FFFFE4B4
00000C56
00001366
0000151D
FFFFCC2F
00003D69
000023D2
000001CB
00001056
FFFFD944
FFFFD15B
00000BF2
00003214
00001F48
FFFFE36A
00003295
00000989
00000890
00001E66
FFFFF862
FFFFE6AC
00002E2A
00001B83
00001743
FFFFE862
00001C5F
00000697
00001CCC
0000183C
FFFFEF4E
FFFFDDB7
00001B92
00002F72
000013D2
FFFFF84F
00002162
000008B8
FFFFEA3B
0000040B
FFFFFD8A
FFFFF3E8
00001A72
00002E0C
00000DCD
00000017
00001E19
000030D7
FFFFFFF7
FFFFF228
FFFFFEA1
00000F33
FFFFFE95
000024EC
00000C90
