000002F8
000028A6
000031BD
FFFFFFBC
FFFFF3AE
0000114D
00000B62
FFFFCE97
000038F0
00002361
00000EDC
00002A79
00001C7A
00000573
00001495
000005E6
000004CA
FFFFDD51
00003668
00001F2B
00000355
00003A66
0000066E
FFFFEB7D
00001A8C
FFFFF0A0
FFFFEA6C
00000D2C
00001B39
FFFFFEAE
0000000C
00002DF5
00000397
FFFFF5E3
FFFFFE54
FFFFEC95
FFFFEC59
FFFFFF86
00001513
000012A0
00000B59
000023FE
FFFFD4D0
FFFFE8C1
00000207
0000035B
FFFFE72C
FFFFEEE1
000013B1
00000BE3
000002E5
00003E46
FFFFCFC8
00000635
FFFFF718
0000100B
FFFFE652
00000B6A
00000BD0
00002179
00001C35
00002C6A
FFFFBD32
FFFFE6DA
FFFFF712
00000EE5
FFFFEDB7
00002873
00000A75
00001D9F
0000134F
00004229
FFFFE4A0
FFFFE857
00000A26
00000531
FFFFF9EF
00000E6D
000006E0
00001B9A
00000A2E
00001DB9
FFFFE666
FFFFF484
FFFFF780
00000534
000014AD
FFFFF48D
000003FC
00001548
00000EEF
00002893
00000016
000000B9
000013C8
00000736
0000002E
FFFFE912
00000845
00002B64
0000169D
0000315A
FFFFF6AE
FFFFF9EE
FFFFF668
FFFFFBEB
FFFFEA93
FFFFE6F7
00000830
00000834
FFFFF566
00001AA1
FFFFF41E
FFFFEC80
00000780
FFFFFC71
FFFFF55B
00000E80
FFFFFCBB
FFFFF7D6
FFFFED4A
00001342
00000A46
FFFFF5C8
00001DC7
FFFFFFCC
000002A9
FFFFF211
FFFFFF4E
FFFFEBF7
0000111F
FFFFE490
FFFFF671
FFFFF775
000010DE
00000D38
FFFFED7A
00000AC8
00001F01
00000A71
00000E2E
FFFFF39D
00000622
FFFFE6A2
FFFFFDC8
000005FC
0000081F
FFFFED52
00001AA2
FFFFF4C4
00001CCC
FFFFD104
00001A82
000013A7
000011CC
00000FDF
00001412
FFFFF19E
00000D43
FFFFF294
00001DF3
FFFFDC3C
00001AF5
FFFFF21E
FFFFF319
000007C3
FFFFF730
FFFFFB4A
000032B5
FFFFDC9C
00001D79
FFFFCCEC
0000145F
FFFFFE1B
00000D60
00001082
00000476
FFFFE67D
000021C4
FFFFF201
000026B3
FFFFDA5E
00001A76
FFFFEFDB
FFFFFCB4
00001333
FFFFE555
FFFFDB32
00003DF8
FFFFE6EB
00001F7C
FFFFF570
000025EB
00000D72
000014E6
00000012
00000ABC
FFFFE717
00003E0D
00001286
000004EC
FFFFDC5A
00001208
FFFFE642
00001357
000005D3
FFFFFB9E
FFFFE295
00004462
FFFFFC42
00000B77
FFFFED67
0000169E
000007EC
000021D9
00000BFA
00000AC0
FFFFE656
000043A7
FFFFFFCE
0000205C
FFFFE7C1
00001BFA
FFFFF7F4
00000CFA
000017AE
00001178
FFFFD773
000014CC
FFFFEFDF
FFFFFCB3
FFFFEF22
000022AF
FFFFFCF9
000027C9
FFFFFB06
000010DC
FFFFF8C9
000029C4
00000C20
FFFFFF91
00000169
0000443F
00000C31
00002C81
00001F19
00002306
FFFFF644
00001BFD
FFFFEF3B
FFFFEE5E
00000590
000034EB
000002F7
000017DD
FFFFFB36
00002F8E
FFFFF599
00000479
FFFFE959
0000059C
000015F8
00005255
000001BF
000024D1
00000CE3
000025CC
FFFFFDDA
00000CDD
FFFFE9A5
FFFFF4AF
00001809
00002877
00000B32
000010C2
FFFFFC47
00003DB4
FFFFFFF0
0000044A
0000041D
FFFFE941
0000070D
0000372D
FFFFF093
00001E2E
FFFFFE3F
0000132A
FFFFE8B5
000021BA
FFFFF461
0000075C
00000FE6
00001AB0
FFFFF577
000024C9
00000B99
00002413
000003F4
0000127E
FFFFF2B5
FFFFF9CD
00002739
FFFFEA93
FFFFFD13
0000014A
FFFFEB62
00000BE2
FFFFF068
00001A2A
FFFFF3FC
000001B8
000031E4
FFFFEF11
FFFFF663
0000253C
000003E8
00000D1D
FFFFDF61
FFFFF350
FFFFF0E5
000007DC
00001D84
FFFFFD50
FFFFF7CE
00001735
FFFFE24B
000006A6
FFFFF710
FFFFFD2B
00001870
000017FE
000015AF
FFFFCD29
FFFFFB99
FFFFE8BD
00000BA5
00000979
FFFFF678
000001A7
00000792
00001081
00003D2C
FFFFC128
FFFFF3D6
000004E6
FFFFFD63
000012B6
FFFFE5E6
FFFFF0FC
000039B7
0000348D
00004EFB
FFFFC703
FFFFCE5D
000006A3
00002584
FFFFEE81
FFFFFB1D
FFFFE042
00002AE4
00001ECD
00005890
FFFFDE88
FFFFE2DF
00000A66
0000126D
00001019
00000910
FFFFFEAD
00001EAC
000026C6
000032BB
FFFFF636
FFFFF07D
00000615
00001B0D
FFFFEB17
00000D37
FFFFEB38
00000B53
000011F3
0000313E
000006B2
FFFFD897
0000254C
FFFFFBCB
FFFFEC1E
0000196E
FFFFE2DB
0000165D
00001ABC
00001220
00000A03
FFFFF526
000000AA
FFFFFAA9
00000F33
000010E3
FFFFEFCC
0000090C
FFFFF0BE
FFFFF645
FFFFFD7E
000002BA
00000681
00000ED3
FFFFF8EF
FFFFEC6B
FFFFFF98
FFFFF7BA
FFFFFD29
FFFFE84A
FFFFFF10
00002043
0000106E
00000E2E
FFFFE021
00000166
00001183
000010FB
FFFFF969
FFFFECF3
FFFFF2C4
FFFFFF7C
000011E4
FFFFF9C7
FFFFEFD0
FFFFD13D
00001C2A
FFFFDA97
FFFFE3A2
FFFFBE45
000010DC
000018B0
0000007D
000016D5
FFFFF307
FFFFC876
00002F0A
FFFFCCD5
00001A16
FFFFDB5C
FFFFF7C7
00001965
000010DD
000018A2
00000876
FFFFCB1A
0000325C
FFFFE11E
00000E5E
FFFFC6E0
00000BD6
00000B94
00002164
000017F9
FFFFF509
FFFFC7B6
00003700
FFFFF6FA
000017BF
FFFFC96B
FFFFFB80
FFFFF5FE
00001565
FFFFFDB6
FFFFE90A
FFFFBE9B
00003DEC
FFFFF84C
00000D7A
FFFFF86F
FFFFEF4C
00000788
000018E9
000009FE
FFFFFCE2
FFFFDC2C
00002419
FFFFF983
00001F84
FFFFE1DE
00001045
000010BC
0000204C
0000215E
00000D74
FFFFD631
000024CB
000011A9
00000294
00000B56
FFFFF8C2
000015C6
00001CD0
FFFFFBBE
0000194C
FFFFD0A5
00003FA7
00001A99
00001A21
FFFFF25E
00000A24
FFFFF850
00002640
FFFFEF00
00000CFE
00000451
0000332D
00000586
00001DB0
FFFFF14F
0000331A
FFFFF69B
00004086
FFFFFB10
00002077
FFFFFBD6
000015D6
000005BC
FFFFF9EE
FFFFF199
000037D5
FFFFF88B
0000276A
000003D3
00003D13
00001283
FFFFF1D5
FFFFECE3
00000D9B
FFFFFC38
00002658
FFFFFE2F
00003DC9
00000557
0000229D
000012C4
00000792
FFFFEC2F
FFFFE277
FFFFE814
00003306
00000073
00001D39
FFFFEB62
00004A54
00001FDE
FFFFE55C
FFFFD033
FFFFF5A3
FFFFEC84
00001EC0
FFFFF498
000021E7
FFFFDF75
000035D7
00002568
FFFFED1C
FFFFF40B
FFFFF45F
00000390
000009D8
FFFFEA7C
0000208C
FFFFE2D7
0000479C
00001323
00000A0C
FFFFF4C2
FFFFED50
FFFFF020
FFFFF91C
00001AC0
00001EDE
0000039D
000038CC
FFFFF568
000003A4
FFFFF5C7
00000AE5
00001284
FFFFE71F
FFFFFB76
0000301F
FFFFFA14
00001903
FFFFFEF1
0000164F
FFFFEFB7
000016B3
000014D0
FFFFEB51
00000AE7
000012D1
FFFFFCF6
00001CE6
FFFFED07
00000FBB
FFFFF239
000026E8
00001160
00000587
00000B42
00002124
00000B87
000017FD
FFFFFB97
00002635
00000024
00000C4F
0000290C
FFFFE5C4
FFFFFE14
0000106D
FFFFF3C5
00003149
FFFFDCDB
000020C7
00001DF8
00002621
000037FE
FFFFEBD2
FFFFE154
0000027B
00001577
00002F47
FFFFE5C2
FFFFF708
00002E47
00000802
00005091
FFFFCCEA
FFFFDEFD
00001268
00001EA9
00000B4C
FFFFF444
00000305
000041E7
00002D6A
0000565A
FFFFD01E
FFFFC2B6
000038C8
00003493
00000E6A
0000008F
FFFFE549
00002360
000041AF
00004954
FFFFF3F1
000001CD
00000E8F
00002977
FFFFF613
000016E1
FFFFDE5A
000017EA
0000124C
000021D9
00000439
FFFFEDA8
00000BA6
00001E4B
FFFFF8AD
FFFFEF9C
000000B2
000013C9
FFFFF6DD
FFFFFDAC
FFFFF57F
00000694
FFFFE9B9
000006EF
FFFFF8AA
000011AD
0000123D
FFFFF46F
00000792
0000070A
00000189
00001962
00001E82
0000086A
FFFFFB66
FFFFF807
0000297C
000022B0
FFFFDA5A
FFFFE921
FFFFDD98
00002714
00000CCC
00000148
FFFFF957
00000AD7
00001040
00000EAB
00000523
FFFFD9D3
000005E4
00000459
00002856
FFFFFF1F
FFFFF5A5
FFFFE021
000038DD
FFFFE9B8
FFFFF2B0
FFFFDC3B
0000078D
00002149
000027F1
00000FDB
00000064
FFFFDB01
000027B6
FFFFE312
00001133
FFFFD060
FFFFFBDF
FFFFF766
000008D3
000013F0
FFFFF47D
FFFFD9D3
000033D3
FFFFEBCA
00000B31
FFFFCEC5
FFFFFD38
00001857
00001608
0000122B
0000056E
FFFFD1E7
00001C6C
FFFFDFE7
0000105A
FFFFF9C9
FFFFF7CE
0000156B
00000FC5
00001C9E
00000F66
FFFFC708
00003C38
FFFFFEE1
000015F4
FFFFFC21
FFFFF564
000011DB
00000B5F
00000A1E
00001900
FFFFCE30
00002453
00001F8A
00001132
FFFFF7E6
00000DF5
00000584
00000844
FFFFFF92
00000392
FFFFE3D6
000038AC
00000C7F
FFFFF6CF
00000489
FFFFF415
0000103B
000021C3
000005D7
000021B2
FFFFFE3B
00002AAD
00000A12
FFFFF43D
FFFFF7EA
00000316
00002526
