00000F9A
00000142
00001074
FFFFAD17
FFFFF4A7
FFFFFD3F
0000068D
00000A0F
00001DCA
0000111E
000023E2
FFFFE640
00000BCE
FFFFB257
FFFFDD7E
FFFFFB68
00003348
FFFFFDDD
000019C5
00002C71
00002C0D
FFFFEA8D
00000E4F
FFFFAA99
FFFFEF97
FFFFF900
00001B90
000003A6
000019E8
00002298
FFFFFD1A
FFFFF82A
FFFFFEF3
FFFFA81E
FFFFEFB4
FFFFF3D3
000035B5
FFFFFB7D
0000335E
00001E30
0000217B
FFFFEF0F
0000203B
FFFFB20F
00000871
FFFFF7F5
0000175A
0000077E
00001C41
0000152C
00001696
00000353
0000175E
FFFFAAB3
FFFFFF9F
FFFFFF53
000048D9
FFFFF227
000012B3
00001AA7
000012E8
FFFFE1BB
000013E6
FFFFB093
FFFFF97A
FFFFF04F
00004591
000004B3
00000C4D
000000E6
FFFFFA68
FFFFDCEA
0000136D
FFFFAFDD
00000442
FFFFF2F8
00002B63
FFFFE0F1
00002CA7
00001D36
0000177C
FFFFF323
00001D14
FFFFC171
FFFFF48F
00000177
0000306A
FFFFD9B2
00002E94
FFFFFC6B
00000A86
FFFFEBE5
FFFFF8FE
FFFFB72F
00000523
FFFFFE20
000020C1
FFFFCE16
00002AE6
00001913
FFFFFC60
FFFFF49F
FFFFF7BC
FFFFCFB3
00000FDF
FFFFF2AF
00003B81
FFFFD169
000018FB
00002469
000003D1
FFFFFC4D
FFFFEB35
FFFFBDF0
0000078F
00000722
00003315
FFFFDE5A
00003581
00002D35
FFFFE59E
FFFFFCC1
FFFFE41B
FFFFD5A3
00000B3A
FFFFF21F
000026F9
FFFFE368
0000122C
0000209D
FFFFC545
FFFFD82A
FFFFEA91
FFFFBD79
00002157
FFFFF8F3
000014E4
FFFFF37F
00001856
00001A32
FFFFBF88
FFFFD00D
FFFFF627
FFFFC000
00002451
FFFFF79B
0000016A
FFFFF57C
00002B19
00002850
FFFFB1A7
FFFFD73E
FFFFF14B
FFFFE9CC
00001D71
000005DD
00000BF4
FFFFE647
00001905
0000318C
FFFFCEF3
FFFFDEB3
FFFFFCD7
FFFFD0E0
00002109
FFFFE077
000004B0
FFFFFF9B
00001FC4
00001347
FFFFE2AA
FFFFE3AE
0000077D
FFFFFF4B
FFFFF52C
FFFFE2CF
FFFFFBA0
FFFFF771
000024B3
00001265
FFFFD872
FFFFEBBA
00000122
0000012C
0000015C
FFFFDD90
FFFFFB70
FFFFE45B
FFFFF966
00000AB4
FFFFE8F2
000005A0
000018AA
FFFFF7D9
00000104
00000873
00000B36
00000FD6
00000DF7
FFFFF176
00001405
00000316
FFFFF566
00000962
FFFFF126
FFFFFE2C
00000AA3
FFFFF46E
FFFFF3E9
FFFFFAED
FFFFFD86
000016FD
FFFFEFB0
0000014C
00000F27
0000105C
FFFFEB11
FFFFEDBA
00000307
0000117F
00000A84
FFFFF37C
00000C5E
FFFFF93A
FFFFFDAA
FFFFEEE7
FFFFEF69
0000118C
00001382
FFFFF1D4
FFFFF25C
000000C3
FFFFFE8E
00000FE2
FFFFF5B4
000008DA
000014E5
FFFFF80C
FFFFF942
000013E7
0000103B
FFFFF51C
FFFFF2AB
FFFFF008
FFFFF599
00000D2E
FFFFF617
0000147D
00000808
FFFFFCF9
00000743
FFFFFD04
00000964
000012B0
00001AA7
FFFFF0C5
FFFFE990
00000622
0000028C
FFFFFB6E
000000CD
00000BE1
00000AB8
FFFFE505
000002A2
FFFFEAA9
00000615
FFFFFA1E
00001BA7
00000AD5
000008E0
FFFFFE30
00001C68
FFFFEC21
FFFFFF58
FFFFFA9A
00000C0E
FFFFFC65
00001EAD
00000BDE
FFFFF6DF
FFFFDFDA
000011B8
FFFFD021
FFFFFE73
00001CA0
FFFFF41D
FFFFFCB1
00002011
000030ED
FFFFF41C
FFFFF47B
FFFFF3CD
FFFFDC4E
FFFFE832
000021CB
0000157F
FFFFEDFC
000018D2
000020C7
0000082F
FFFFED12
00000742
FFFFD410
00000947
00002E9A
00001958
FFFFDFEE
FFFFFF9E
0000032E
00000706
FFFFF740
FFFFF86B
FFFFCD82
00000E3B
00001EA3
00002AC0
FFFFD780
FFFFFD23
000006ED
00001129
FFFFFF36
FFFFE9A5
FFFFC789
0000078B
00001ED9
000030E2
FFFFD918
00000CDE
0000170F
00002251
FFFFEC33
FFFFF2D7
FFFFBCDA
FFFFFDFF
000016DB
00001E76
FFFFE3FC
FFFFFE86
0000227D
00001CBF
FFFFEF7F
FFFFDCBE
FFFFDD52
000014E9
00003313
00002F93
FFFFCA23
00000E82
00000B84
0000288B
FFFFEA0E
FFFFD3FA
FFFFDFD0
FFFFFF20
000039EF
00001BA9
FFFFD11F
00001205
00003327
00001771
FFFFEB43
FFFFCE76
FFFFB7BE
0000014B
00003D3F
0000266D
FFFFB409
00001223
000013CB
00000988
FFFFE948
FFFFD5EA
FFFFB5AA
0000010C
000015BE
000035E2
FFFFD8A4
FFFFF216
00001DD4
00001FC1
FFFFEB1E
FFFFC7D9
FFFFB953
0000065A
000025E8
00003FA1
FFFFD285
FFFFEFB0
00001716
00001404
FFFFF0AE
FFFFC1F1
FFFFCB0F
000013D0
00002381
000039BC
FFFFCC6E
FFFFF7E0
0000012C
0000121B
FFFFE21F
FFFFC42A
FFFFC5C4
000009CF
0000250E
0000321D
FFFFCE4E
00001355
000012BB
000005B4
00000047
FFFFBED8
FFFFAF5A
00000B60
000008CA
00001708
FFFFDD2F
000014D7
FFFFFE80
000002C8
FFFFEEC3
FFFFB495
FFFFD072
00001943
FFFFF19D
00000768
FFFFF457
00000968
000014D7
FFFFE750
FFFFD7D1
FFFFEDD0
FFFFE47E
00001A7D
FFFFECD2
00002396
FFFFF273
00001A64
0000029C
FFFFE2D3
FFFFE1A1
FFFFEB64
FFFFD8FF
00000E18
FFFFE6A7
00000A5F
FFFFFBE5
FFFFF186
00001934
00000B27
FFFFF3F9
FFFFDE30
FFFFE4A8
FFFFFD9D
00000BC0
0000045D
FFFFEBE2
0000023A
00001CD9
FFFFE8B0
00000EDD
FFFFE998
FFFFDA36
000018BE
FFFFF393
0000172B
00000AA1
00000406
FFFFFFFC
FFFFFB84
00000C96
FFFFF783
00000422
00000C10
00001048
00000ECD
FFFFF835
FFFFFA9F
FFFFF10D
000005D4
FFFFF29E
FFFFF46E
FFFFF31E
FFFFEECC
000012E0
000003E9
FFFFF43C
FFFFF458
FFFFF04C
00000202
FFFFEE84
FFFFEA1F
FFFFEB93
FFFFF881
FFFFF74E
00001528
FFFFF5C9
00000AA6
000010D1
FFFFEF18
FFFFFA36
00000A46
00000365
FFFFF024
00000AE3
000005E6
00001513
FFFFF8BD
0000163F
000014B7
FFFFF0B1
FFFFEA36
00000910
00000122
FFFFEE5B
0000028E
FFFFF792
00000B5D
00000A7B
00000CE3
000012A7
00000DEF
0000063A
FFFFFDA3
00000548
FFFFF8AC
0000135E
FFFFF357
FFFFEC4D
0000083C
FFFFF52B
FFFFF21F
FFFFF783
00000F64
0000072E
FFFFF6D0
0000091D
FFFFEA9A
00000C74
000009E9
000013E4
FFFFF24E
0000096B
FFFFF5E9
FFFFFC6C
00000E22
0000002A
FFFFF884
00000975
0000180A
00001032
FFFFFFEF
FFFFF31E
FFFFF85C
00000F45
00000D67
00001312
FFFFF658
FFFFF705
00001BBD
00001B3B
FFFFE500
FFFFEDE2
FFFFE4C3
FFFFF4DD
00000B8E
FFFFEBC6
00000147
FFFFFB9A
00001447
000015EC
FFFFF833
FFFFECF3
00000F5E
00000135
00001A6E
000003F1
00000860
FFFFF841
00001CF2
0000082F
FFFFF1A1
FFFFE6E7
00001178
00001259
00001A6C
00000B76
FFFFE760
0000057A
FFFFFFCF
00001D0B
00000038
FFFFE355
000008D3
00001145
0000306B
000008EA
FFFFF371
FFFFFCF6
00002537
00001532
000003C2
FFFFD421
FFFFE906
00001150
00000971
FFFFE0BB
FFFFE673
FFFFF506
00001DBB
00000641
FFFFEE45
FFFFF381
FFFFFE4B
00000F3E
00002AE6
000002DB
FFFFE367
000011DF
000012E9
0000202E
FFFFE645
FFFFF10C
00000863
00000D19
00000B7E
FFFFE844
FFFFF74D
000000EB
00000973
000018FD
FFFFFF94
FFFFEBA5
FFFFE233
00000FA6
00002E7A
FFFFFDB3
FFFFD4E4
FFFFFBDA
00001F7E
00003C8E
FFFFCAAD
FFFFE84E
FFFFF17C
0000278B
00001ED3
FFFFDC82
FFFFE65F
0000053C
00001EE3
00000A05
FFFFD471
FFFFDD91
FFFFE855
00003346
00001A93
FFFFEE80
FFFFF1F2
FFFFFAB9
00002B7C
000016D5
FFFFE12A
FFFFDA9C
FFFFF1F8
000025C9
00001017
FFFFF865
FFFFF713
FFFFEF33
00003351
00001D83
FFFFE22F
FFFFFF6F
FFFFC20B
00003929
000035A9
FFFFE9ED
FFFFD570
FFFFFDA5
000035AA
00001431
FFFFD2CA
FFFFF0E5
FFFFFA38
000008A6
00003715
FFFFF6EC
FFFFE869
FFFFE79A
00002228
000011F6
FFFFF22B
FFFFDC91
FFFFE1C6
0000105F
000025DF
FFFFD990
FFFFFFF4
FFFFE925
00001013
0000169E
FFFFD644
FFFFED46
FFFFE6C5
0000089F
00002116
FFFFF9B6
FFFFEC8C
00000037
00000CCA
00000EF7
00001376
FFFFF01E
00000564
00001E04
FFFFF46C
FFFFE88B
FFFFEF53
FFFFEDE5
00001C1F
000001BE
00001374
FFFFF778
FFFFFD97
00000A87
00000A6D
FFFFF4CE
FFFFF765
000002F1
00000B95
00000767
00000130
FFFFFABE
FFFFFE69
00000AF5
00000D01
FFFFFC43
000002A6
FFFFFD4E
00001089
FFFFFA58
00000B1D
00000220
FFFFEE39
FFFFFB5F
0000110F
FFFFF7C7
FFFFF3F3
000012A9
0000049B
FFFFFA33
00000582
00000D53
00000E1E
0000145E
FFFFFF90
00000250
00000BDF
FFFFFD91
00000F1F
00001183
0000078D
FFFFFE47
FFFFEF7B
00000F5A
FFFFFF8A
FFFFEF63
FFFFEA62
0000110F
00001228
FFFFF71D
FFFFEC6B
0000040B
00000DFA
00000CFC
00000012
00000B81
00000A5F
FFFFFD28
FFFFEB56
00000E1E
FFFFFFBC
000015C8
