00001292
00001335
0000292E
FFFFDE4B
00000388
00000965
00000FD4
000013C5
00003060
00000A36
FFFFF513
000021D2
00003F59
FFFFD69B
00000972
00001EC4
FFFFEF92
FFFFFFC5
00000A00
00000D3D
FFFFFDA2
0000186C
00003FC8
FFFFF8B3
000019A9
FFFFFAF8
FFFFFE91
FFFFEE88
00001E44
FFFFF7D8
00000304
FFFFFD20
00003CD1
FFFFE16B
00000C8E
FFFFF600
FFFFF1B2
FFFFFF49
FFFFF207
0000044D
00000521
0000019A
00003D4A
FFFFE82B
FFFFF284
00001686
000010C0
FFFFE40B
00000115
0000002A
00000D9B
000017B0
00004AC5
FFFFFADA
00000D00
FFFFF303
00000878
FFFFD525
00000C77
00000E9B
00000A78
0000080B
00001528
0000065B
00000587
FFFFF373
FFFFEE88
FFFFD059
00001DBB
00000643
FFFFF056
00000EEC
0000119D
000019A6
0000045C
FFFFE40E
FFFFBEE3
FFFFCCEE
000039C5
FFFFFBDC
0000119E
FFFFFD29
0000273B
00002686
FFFFEFBD
FFFFC4D7
FFFFB1B4
FFFFFD57
00003947
FFFFC6BA
FFFFE48A
FFFFC64C
000013CB
00000E93
00000A48
FFFFDF30
FFFFDC5F
FFFFE89D
00000B94
FFFFF5C9
000003A6
FFFFD9A1
FFFFFC16
00000AA8
00000A85
FFFFFE72
FFFFE329
0000125B
FFFFF9EE
00000441
0000076E
FFFFED24
FFFFF711
FFFFF85C
FFFFF4C6
FFFFFC3D
00000170
FFFFEF9C
00000680
0000047D
FFFFFCBE
FFFFF3E5
00000DEF
FFFFF900
00001A9F
0000130F
00000602
000005F8
000019D0
FFFFE604
FFFFF18E
000006BC
FFFFFEC0
FFFFF983
000000CB
000017CD
0000029E
FFFFF975
0000048E
FFFFF688
00000129
FFFFFB76
000032FD
FFFFE204
000017B1
0000246F
FFFFF46C
FFFFD430
0000044D
FFFFDBBC
0000320E
FFFFC781
00003754
FFFFFDF6
00001604
000004C3
FFFFE94A
FFFFE479
000029C7
FFFFCD53
000009A4
FFFFD29F
00000FFC
FFFFF364
000021D1
00000D56
000013A3
FFFFBFF8
0000271C
FFFFDCBC
000004C0
000006DD
000016AF
FFFFD821
00001C36
000003C2
FFFFF37C
FFFFB7ED
00001F0C
FFFFFE1C
FFFFEF45
0000037E
00003179
FFFFE8D6
00001A78
FFFFFFDD
FFFFF1D7
FFFFAF8C
000023B5
FFFFFE87
FFFFF36A
00001D8F
00002B72
FFFFE61B
000036AC
00000E8A
00000BCF
FFFFBF8F
00001538
000001ED
FFFFE1C3
00001EA9
00003858
FFFFEE05
000031D3
000018FD
FFFFFBCB
FFFFE01E
0000204E
000013CD
FFFFD82E
000026F5
00002583
FFFFEDAA
000024DA
FFFFF8C0
FFFFEA8A
FFFFE0D6
00001773
00002600
FFFFDA74
000027DF
000012F4
FFFFD3A4
00000A38
FFFFF9B3
FFFFE6C0
00000638
000023FF
00003151
FFFFCCFD
000037E8
000017A0
FFFFF81B
FFFFFC3F
FFFFEE12
FFFFE256
00000CEA
00002A96
00002AA2
FFFFBB7A
00001B07
00001DC2
FFFFF73B
00000DE2
00000746
FFFFEB2C
000020B0
00002B6E
00000EB6
FFFFE5D4
000014D7
0000142E
FFFFEA81
00000BC3
FFFFEA32
FFFFFC69
00002EE5
0000359D
000029A1
FFFFEC85
00001841
00001175
00000925
00000CC2
000009CE
00000892
00002B04
00001E73
00001812
FFFFF208
000019B3
00002DAD
FFFFED15
000014D1
0000121F
FFFFEB70
0000033E
000014FE
00002213
00000CEC
00001862
000020DB
FFFFF736
00000A26
00000898
00000C43
00001996
00001D9C
00001333
00000DB9
00000C6E
0000320C
FFFFEE70
000011DD
000015D1
FFFFFFC7
FFFFE856
000007AB
00000E11
00001DAE
00000A00
0000305D
FFFFF791
FFFFEF6F
00001078
FFFFF652
FFFFF3AB
000013C3
0000102C
0000148C
00000F18
00002155
FFFFE2DC
00001541
FFFFEAB7
FFFFECC8
FFFFEAE1
00001B08
FFFFE57C
000005DC
00002251
00001E36
FFFFEC07
0000118A
FFFFF177
FFFFF7D6
FFFFC858
00001F58
FFFFEA7B
000008A5
00000F43
00001638
000005D0
00001341
FFFFEC84
FFFFEFF0
FFFFBCDB
FFFFFE7F
FFFFEFC3
0000033C
00002A5A
00001C1B
FFFFFEFB
000009BA
000000E3
FFFFEECA
FFFFD782
000011A9
FFFFFD07
000007CB
FFFFFB10
00002C5F
00000704
000005CF
FFFFC8E4
FFFFD759
0000013F
00002E34
FFFFF79C
00000872
FFFFDDD7
00002DAD
00002A26
FFFFE9B0
FFFFC16A
FFFFE25B
000001DD
00000B84
FFFFC73E
00000D5F
FFFFBFC1
FFFFFEF5
FFFFFA32
0000110F
00000006
FFFFDBDE
FFFFF085
00001594
FFFFE9EB
000006FC
00000A80
FFFFF743
00001048
00000556
00000718
FFFFEFD0
00001079
00000BB2
FFFFFEB5
0000123B
FFFFF84A
00000CE8
FFFFFA70
00001954
FFFFFA60
FFFFF274
000006C4
FFFFF91E
00000BA8
FFFFF1EF
00001866
000013DD
00000046
00001BEE
0000161E
FFFFF643
FFFFFCDB
FFFFFEB2
000005EF
000013B0
FFFFED1C
000025DE
FFFFE734
000004BB
00000D45
FFFFFE99
FFFFFFA8
FFFFFCFE
FFFFF105
00001D97
000006A0
000037C6
FFFFD7E7
000029B5
00001926
FFFFE898
FFFFD26D
00000908
FFFFC607
0000060E
FFFFDB2E
0000180A
FFFFDF4F
00000526
FFFFFCD9
FFFFE2DC
FFFFE6BF
00002CCC
FFFFDA88
FFFFFFB3
FFFFF3DB
000033FA
FFFFF4FE
00001E5D
00000E5B
FFFFF3A3
FFFFD64D
000024A9
FFFFDA9F
FFFFE27F
FFFFFACF
00002757
000003ED
00003172
00001CE1
00001054
FFFFB2D1
00000BF1
FFFFE89A
FFFFFA8A
00000D4F
00001739
FFFFFC31
00002166
FFFFF41E
FFFFEB84
FFFFD77D
00000583
0000007B
FFFFF95D
00002937
0000149D
FFFFEE04
000030E2
00001B19
FFFFEE73
FFFFD196
000006B2
FFFFFFDC
FFFFFC6B
000010E5
00001425
FFFFFB87
00001124
FFFFFC4A
FFFFECF1
FFFFE9BB
0000096A
FFFFFF45
FFFFF81E
000024CE
00001599
FFFFF32F
00001315
FFFFF16F
FFFFF8BC
FFFFEC27
00001B39
000003BA
FFFFF0F1
00001FBE
000017B6
FFFFDC5D
00001237
00000A34
000001E6
00000749
000023CF
00001368
FFFFDF95
0000225F
00000431
FFFFFF74
FFFFFBE6
FFFFEF2F
00000FB3
FFFFF990
00003334
000023B8
FFFFE72F
00001FCF
00002BAE
FFFFEB24
00000283
00000AD4
00000666
00000FDB
00003BB8
0000382F
FFFFE047
0000201D
00002311
FFFFE90A
00000C35
00000AA1
00000557
00000F23
000010A2
0000183A
FFFFE335
000032D6
00001AF1
00000176
000001CD
000009A9
00000FEE
000011FA
00001AEA
000022FA
FFFFFA2A
00001F9A
00001748
000000E4
000005EA
00000975
FFFFF35D
FFFFF05A
000021F9
00000AE7
FFFFF869
000016EF
00003E39
FFFFEF31
00001359
000007AC
FFFFE500
FFFFF0A9
00000EA0
00001DCC
00000D74
00001BBA
00002C9E
00000D66
00000DEC
FFFFF719
FFFFF6EB
FFFFE9AE
00001CBC
FFFFF931
00001C28
00002EF4
000042B0
000007A5
FFFFFAC5
00000C02
0000000C
FFFFD547
00001865
FFFFF5AE
00001982
00000B01
000016A2
FFFFFD8D
FFFFF7EE
FFFFE517
000005B8
FFFFE881
FFFFF738
FFFFF27A
000009BF
00002F89
00000800
00000826
000004F2
FFFFF037
FFFFE0B9
FFFFE645
FFFFFFC0
00000B21
000034B7
00000B9E
00002A8E
FFFFF41F
FFFFF7C3
FFFFE7A6
FFFFE0A4
FFFFE188
00000A9B
00000CF4
00002760
000014EC
00001103
00000847
000002FA
FFFFF665
FFFFEF3C
FFFFE6D4
00001DC4
00000039
000007EB
000014F0
00002C0C
00000A5F
FFFFDF71
FFFFE7B3
FFFFEA56
FFFFF3A5
00002B9C
FFFFDE74
FFFFEF2E
FFFFF3D1
0000173C
00001B41
FFFFE076
FFFFCDB6
FFFFE8CD
FFFFF211
0000322D
FFFFDE33
FFFFEE20
FFFFEBD3
00000738
000016D0
000003AB
00000279
FFFFF9D4
00000CB2
000019F4
FFFFF7F2
FFFFE973
00000D02
0000066D
FFFFF475
FFFFFE03
FFFFF19B
00001AA4
FFFFFCB0
0000033A
FFFFF9FB
FFFFF5F1
FFFFEB83
000000A8
00000772
000015AD
00000A4F
00000104
000014B6
FFFFF263
00000898
FFFFF210
FFFFF141
FFFFFBB1
FFFFF00E
00001DAD
FFFFFCFB
000015B7
FFFFEE7B
00000244
FFFFFAE6
00000CD3
FFFFEC7E
000034EE
FFFFE8BE
00001782
FFFFFD34
FFFFFDC3
FFFFF7C1
00000DD1
FFFFF86A
00000F15
FFFFDF12
000035B3
FFFFEDAC
00001C52
00000AB7
000005DF
FFFFEC04
00000239
FFFFF0A9
000023FC
FFFFF028
0000267F
FFFFF3B8
000026C3
00000742
FFFFE9C9
000000B8
0000133D
FFFFD294
00002E1C
FFFFDC12
000008D3
000007CE
00003455
FFFFF981
FFFFE077
FFFFD5F3
00001A39
FFFFDE32
FFFFEC7C
FFFFE298
000022ED
FFFFFA32
0000279B
FFFFFFCC
FFFFEB79
FFFFDAC9
00000A5F
FFFFE996
FFFFE8C1
FFFFF87E
000027C0
00000E3C
00002867
FFFFFF9E
FFFFE861
FFFFD97C
00001CD2
FFFFED3E
FFFFF522
00000954
00000E72
FFFFF9CD
00000969
00000AB8
000007F8
FFFFE7EF
0000015C
0000037D
FFFFF23A
FFFFF8A6
00001613
000003AF
000024A3
00000E7F
000004BB
FFFFEF15
000010C8
0000025A
FFFFF354
0000078F
000020C7
00000DA9
00002C51
00000E9B
0000210A
FFFFFEA6
0000228C
00000B4D
FFFFDF61
00001C33
000021A2
FFFFF8ED
