0000059C
000012F6
00000A6C
FFFFEED2
FFFFFD2F
FFFFFF97
FFFFEF0F
FFFFEFBF
FFFFF4D6
FFFFEF81
FFFFEFDB
FFFFFAAE
FFFFFA7A
FFFFFCDC
FFFFF99C
0000027F
FFFFFEA7
0000138C
0000037E
000008FB
FFFFEB55
00000374
FFFFF61F
FFFFFE56
FFFFF493
FFFFF14C
FFFFFCEB
00000706
0000159A
FFFFEBA9
0000005D
FFFFEEB4
FFFFEB22
FFFFEE8F
FFFFEFCD
00001257
00000A4D
00000DDD
000002F7
00000D94
00001355
FFFFFB50
00000C58
000005E0
0000152F
00000BF4
00001283
FFFFF1D0
FFFFF013
00000A22
FFFFEA4D
000005CF
000006A0
0000007D
00000812
000012BB
00000966
00000A50
FFFFF979
FFFFFAD2
00000F97
FFFFF7A7
FFFFEE29
FFFFFF64
00000AE0
FFFFF035
FFFFFDCF
FFFFF7B2
00000DC7
000013F0
FFFFED24
FFFFFA41
FFFFECFF
FFFFF6B5
FFFFF78E
00000A2B
00000C0B
FFFFEF55
FFFFFA2A
00001089
0000142D
FFFFFB7D
FFFFEF84
00000C6B
FFFFEFBB
00000F98
0000049B
FFFFF2EE
FFFFF08D
FFFFF503
FFFFF32E
FFFFFB7E
00000FAC
FFFFFC16
FFFFFDB0
FFFFFE90
FFFFFE84
00000B25
0000110F
000010D1
FFFFF4FF
000006CD
000010B1
00000398
00001202
0000059B
00001068
000004FF
0000041E
00000BAB
000011FE
FFFFEDF9
FFFFED31
FFFFF3A1
00001605
FFFFED27
00000F06
FFFFEF20
00000C14
FFFFEA61
FFFFEEFD
FFFFF7CB
FFFFFD60
FFFFF996
000011EE
000006C6
FFFFFEEF
FFFFF6EE
000004CD
00000D69
00000011
FFFFEFD6
FFFFFCF8
FFFFEFDD
FFFFF96F
FFFFF99C
00000B26
FFFFFDBC
FFFFF184
000001AA
FFFFF87B
00000B08
FFFFF079
FFFFF04B
FFFFF01C
00000E1A
FFFFFCB0
0000047F
FFFFF769
00000D2E
00001937
FFFFFD9A
000018FB
FFFFF74A
00000FFB
FFFFF542
00000D0E
00000F75
FFFFEF43
00000F52
FFFFF346
00001001
00001231
00000705
00000B31
00000816
0000094E
FFFFF6F3
00001485
00000927
FFFFECCA
FFFFFA7D
00001460
FFFFF125
00000B29
FFFFF2AD
00000FDF
00000F6A
00001420
00000A8E
0000021B
00000D64
FFFFFF50
FFFFF02B
00000F39
FFFFEB81
FFFFF667
FFFFF555
000006F6
00000BBE
FFFFF933
000006B1
FFFFFC20
000008CF
00000A3A
FFFFFC61
00000CD9
00000DA4
000006F4
0000120C
FFFFF6ED
FFFFF562
FFFFEAAE
000005AD
FFFFFD7B
FFFFF88B
FFFFFF43
00000F37
FFFFF198
00000185
FFFFED2A
FFFFFBA5
000011B2
FFFFF537
0000133E
FFFFEC39
FFFFF045
FFFFFECA
00001072
0000012C
000008B7
FFFFF440
FFFFFEB4
00000257
FFFFF228
00000AB2
FFFFF13C
000007CC
FFFFEC23
00001116
00001395
FFFFF5F3
00001220
FFFFF4D8
FFFFF0F7
FFFFEAB4
000009C6
FFFFFCEA
FFFFED1E
FFFFF7F8
FFFFFD72
FFFFF4CC
FFFFFCF4
00000E9A
00000CB2
0000062C
0000120D
FFFFF0AA
FFFFFCAC
FFFFEDED
FFFFFE84
00000282
00000869
FFFFF417
FFFFF0B6
FFFFF301
000014EB
FFFFEC42
00001411
FFFFEC4E
FFFFFC09
FFFFFCC4
FFFFEB7A
FFFFFC22
00000482
FFFFF31C
00000072
000009D3
0000095E
000004F9
0000093C
FFFFEDA9
FFFFF248
0000139D
FFFFFDBC
00000C37
00000B7D
FFFFEA16
0000005C
000001F3
000014BD
FFFFFCF3
0000048F
00000198
FFFFF6C8
00000C8A
000015AD
FFFFFCD2
00001431
FFFFF933
00000F81
00001365
0000029E
FFFFED58
FFFFFFB6
FFFFF718
FFFFF9AC
FFFFEE8B
FFFFFF82
FFFFFF9A
FFFFFC7A
00000A0B
00000E61
0000040F
FFFFEBBE
00000AF0
0000060E
FFFFFCD7
0000118D
FFFFEE48
FFFFE9CA
FFFFF57D
FFFFEA23
FFFFFF8B
FFFFFB89
FFFFEC10
000010FC
00000AA6
00001557
000008ED
000004FA
00001099
00000A4C
FFFFE7E0
0000003A
00001499
000002A0
FFFFF894
FFFFEB42
0000175E
FFFFEF15
FFFFEAAE
FFFFE6EB
0000023B
00000517
000014F0
FFFFE992
000008FD
00000E89
0000055B
FFFFFB70
FFFFEDB6
FFFFF14E
FFFFFDF8
FFFFE4A0
00000DF8
00001458
000013F5
00000644
00000F7D
FFFFFB6E
FFFFF9AF
FFFFF38A
FFFFFB75
FFFFF051
FFFFF723
FFFFFFAC
00000E1F
FFFFE31A
000004AD
000022BF
FFFFDAC4
000007E9
0000061C
FFFFEE75
000023BE
FFFFF651
000029C4
FFFFCFAB
00001C16
000015FA
FFFFEB40
FFFFEA8F
000009EA
FFFFDFC9
00001AC6
FFFFF2C3
000010A2
FFFFD6F2
00000796
0000108D
FFFFF78F
FFFFEB39
FFFFF9A0
FFFFEE02
00002D49
00000542
000018CB
FFFFE2F6
0000070B
00001E70
FFFFD204
FFFFF07E
FFFFDA8F
FFFFEEA6
FFFFF914
00000914
0000200E
FFFFF052
000014DC
FFFFFC63
FFFFE926
FFFFF1BF
FFFFCE26
FFFFF752
00001A3B
000016C9
00000DA5
FFFFCE85
00002F21
0000203A
FFFFE1B8
0000128E
FFFFC640
FFFFFAAE
0000119A
000020E4
FFFFFEDB
FFFFDD0C
00002D6D
000006D3
00000E5F
000016F8
0000066B
FFFFFD3F
FFFFF4C5
FFFFF47F
00000597
FFFFE8E8
000020E3
00000A65
FFFFF566
000014C8
FFFFF7FB
FFFFF9D3
FFFFF7FA
00000E68
00000ECD
FFFFE7AB
00000F9E
00000A08
FFFFFF2D
00000348
FFFFF1ED
FFFFD864
000005A6
000000FB
000007BB
FFFFEF0A
FFFFEAD1
00000D1D
FFFFF79D
00001370
0000021D
FFFFE8DE
FFFFF9BA
FFFFFEA7
00000515
FFFFDB0F
00000632
000010FC
FFFFDAB2
FFFFFF31
00000935
FFFFF80B
000015F5
FFFFF704
000022AB
FFFFEA46
00000DB8
00001D73
FFFFEBE3
00000986
FFFFFA07
FFFFEADB
00002291
00000893
00000348
FFFFDC8D
00001E77
FFFFF77F
FFFFE577
00000B26
FFFFF46F
FFFFEAFF
00000CCF
000003E9
0000204E
FFFFD725
FFFFFCEB
000016FA
FFFFEA37
00000522
FFFFFEF5
FFFFF422
000004E5
00000AC8
0000185F
FFFFF147
0000077D
00000F5C
FFFFD5FE
00000857
FFFFE4BF
FFFFF9EA
FFFFF499
FFFFEC1C
000013F4
FFFFFD30
00001FD5
FFFFF958
FFFFFB6A
FFFFF7AA
FFFFEC09
FFFFDD3C
FFFFE8CC
00000E77
FFFFF83E
FFFFE8EB
000021DA
000007AE
00000BA8
FFFFF900
FFFFFA6A
FFFFEDB1
00000996
0000160C
FFFFF124
000005F6
00001099
FFFFECB5
FFFFFEA9
FFFFFD61
00001457
00000A03
0000031A
FFFFF587
00000B2B
FFFFF708
FFFFF400
0000095E
0000147C
FFFFFE98
FFFFFE95
FFFFFAAF
FFFFFC11
00000D5C
FFFFFFD7
0000105E
FFFFEBF6
FFFFFB81
0000098C
FFFFFEAD
00000614
000009D3
FFFFFC31
FFFFF033
00000397
FFFFF81E
FFFFEB38
00000784
00000BDF
00001501
00000271
00000BEC
00000226
FFFFED18
FFFFF2E1
FFFFED8F
00001050
00000C0E
FFFFEED9
FFFFF6D5
00000EEC
FFFFF294
FFFFEB6A
00000540
FFFFF51E
FFFFEFBA
0000117C
00000BBD
0000058D
FFFFF600
FFFFF26C
FFFFF788
FFFFF8E3
FFFFFF7B
00001A4C
00000DD9
000019FC
000017CE
FFFFE863
00001531
FFFFF487
00000911
000011CA
FFFFF456
00000CD5
000006D9
00001D02
000011DB
FFFFFB14
000017D3
00000B30
00000494
FFFFFC80
0000111A
000001D1
FFFFF450
00001048
0000027B
00000350
FFFFF843
FFFFEE27
FFFFE438
000002A9
00001321
00001290
FFFFF3B7
00001C2C
FFFFF8A6
000009E3
FFFFFEA1
00001032
FFFFF817
0000096A
000000CD
00002126
FFFFFBD7
00000FBC
00000038
FFFFEB84
FFFFF46B
FFFFE6B2
FFFFEC93
0000130F
00000BFF
000023AE
FFFFCABD
0000189B
FFFFF59F
FFFFEE0B
FFFFDDBD
FFFFE30A
FFFFE1C4
00002181
FFFFE8F9
000023CE
FFFFD918
00002DCE
00000695
FFFFCA6D
FFFFF3D2
FFFFCEFD
FFFFC991
00001C24
0000011D
0000152E
FFFFB3C7
0000176C
FFFFFF38
FFFFE041
FFFFE9DE
FFFFC463
FFFFB4E4
000024E4
00000E0E
000047E5
FFFFB7C1
00001806
000031CC
FFFFD7FB
FFFFD530
FFFFE60F
FFFFBEFB
00000FFA
FFFFF92C
000048C5
FFFFB633
000040B9
00001F1E
FFFFC2C5
FFFFD3E4
FFFFB435
FFFFB63C
0000131D
00001553
00002741
FFFFA2BF
00002BE2
000042F7
FFFFCE59
FFFFFC39
FFFFDB94
FFFFB81D
00000321
00000DC9
0000236C
FFFFB857
00002A3D
000028D4
FFFFDD11
FFFFF50E
FFFFCD11
FFFFC5D6
000016BA
000003A6
000037D8
FFFFAD6B
000033FF
00000DD3
FFFFFAD0
FFFFEBE7
FFFFEDCA
FFFFA504
0000180A
0000192A
000034B2
FFFFCB13
0000377E
000022CB
FFFFFCDF
FFFFEF7E
FFFFE759
FFFFC036
00000652
FFFFFCF0
00002F8A
FFFFD69F
00003011
00002C21
FFFFDE2F
FFFFFA5E
FFFFEB1D
FFFFAB8D
00001A4C
000007CB
0000269B
FFFFE17B
00002D80
000003E5
FFFFF336
FFFFE2C8
FFFFECDC
FFFFC7A3
00001667
00002492
00002521
FFFFD6FF
000043CE
FFFFF9A9
FFFFEF39
FFFFCCA0
FFFFE41C
FFFFCE99
00003BE8
000004BE
000023B7
FFFFE6CB
00001C92
00001BC9
FFFFFDBD
FFFFE372
FFFFDEB6
FFFFB63A
000042E6
00001AB2
0000191B
FFFFDB2F
000034F3
FFFFFC2E
FFFFDEFD
FFFFD532
FFFFE83F
FFFFD62F
00002466
0000102E
00001284
FFFFC980
00001404
00002033
FFFFDD81
FFFFDA29
FFFFEC8E
